{
  "version": "1.0",
  "truncation": null,
  "padding": null,
  "added_tokens": [
    {
      "id": 0,
      "content": "[PAD]",
      "single_word": false,
      "lstrip": false,
      "rstrip": false,
      "normalized": false,
      "special": true
    },
    {
      "id": 1,
      "content": "[SOS]",
      "single_word": false,
      "lstrip": false,
      "rstrip": false,
      "normalized": false,
      "special": true
    },
    {
      "id": 2,
      "content": "[EOS]",
      "single_word": false,
      "lstrip": false,
      "rstrip": false,
      "normalized": false,
      "special": true
    },
    {
      "id": 3,
      "content": "[MASK]",
      "single_word": false,
      "lstrip": false,
      "rstrip": false,
      "normalized": false,
      "special": true
    },
    {
      "id": 4,
      "content": "[UNK]",
      "single_word": false,
      "lstrip": false,
      "rstrip": false,
      "normalized": false,
      "special": true
    }
  ],
  "normalizer": null,
  "pre_tokenizer": {
    "type": "ByteLevel",
    "add_prefix_space": true,
    "trim_offsets": true,
    "use_regex": true
  },
  "post_processor": null,
  "decoder": {
    "type": "ByteLevel",
    "add_prefix_space": true,
    "trim_offsets": true,
    "use_regex": true
  },
  "model": {
    "type": "BPE",
    "dropout": null,
    "unk_token": null,
    "continuing_subword_prefix": null,
    "end_of_word_suffix": null,
    "fuse_unk": false,
    "byte_fallback": false,
    "ignore_merges": false,
    "vocab": {
      "[PAD]": 0,
      "[SOS]": 1,
      "[EOS]": 2,
      "[MASK]": 3,
      "[UNK]": 4,
      "!": 5,
      "#": 6,
      "$": 7,
      "%": 8,
      "&": 9,
      "'": 10,
      "(": 11,
      ")": 12,
      "*": 13,
      ",": 14,
      "-": 15,
      ".": 16,
      "/": 17,
      "0": 18,
      "1": 19,
      "2": 20,
      "3": 21,
      "4": 22,
      "5": 23,
      "6": 24,
      "7": 25,
      "8": 26,
      "9": 27,
      ":": 28,
      ";": 29,
      "?": 30,
      "A": 31,
      "B": 32,
      "C": 33,
      "D": 34,
      "E": 35,
      "F": 36,
      "G": 37,
      "H": 38,
      "I": 39,
      "J": 40,
      "K": 41,
      "L": 42,
      "M": 43,
      "N": 44,
      "O": 45,
      "P": 46,
      "Q": 47,
      "R": 48,
      "S": 49,
      "T": 50,
      "U": 51,
      "V": 52,
      "W": 53,
      "X": 54,
      "Y": 55,
      "Z": 56,
      "[": 57,
      "]": 58,
      "^": 59,
      "_": 60,
      "a": 61,
      "b": 62,
      "c": 63,
      "d": 64,
      "e": 65,
      "f": 66,
      "g": 67,
      "h": 68,
      "i": 69,
      "j": 70,
      "k": 71,
      "l": 72,
      "m": 73,
      "n": 74,
      "o": 75,
      "p": 76,
      "q": 77,
      "r": 78,
      "s": 79,
      "t": 80,
      "u": 81,
      "v": 82,
      "w": 83,
      "x": 84,
      "y": 85,
      "z": 86,
      "{": 87,
      "}": 88,
      "¡": 89,
      "¢": 90,
      "£": 91,
      "¤": 92,
      "¥": 93,
      "¦": 94,
      "§": 95,
      "¨": 96,
      "©": 97,
      "ª": 98,
      "«": 99,
      "®": 100,
      "¯": 101,
      "°": 102,
      "±": 103,
      "²": 104,
      "³": 105,
      "´": 106,
      "µ": 107,
      "¶": 108,
      "·": 109,
      "¸": 110,
      "¹": 111,
      "º": 112,
      "»": 113,
      "¼": 114,
      "½": 115,
      "¾": 116,
      "¿": 117,
      "Â": 118,
      "Ã": 119,
      "Å": 120,
      "Î": 121,
      "Ï": 122,
      "×": 123,
      "á": 124,
      "â": 125,
      "ï": 126,
      "ĉ": 127,
      "Ċ": 128,
      "Ġ": 129,
      "Ģ": 130,
      "ģ": 131,
      "Ĥ": 132,
      "ĥ": 133,
      "Ħ": 134,
      "ħ": 135,
      "Ĩ": 136,
      "ĩ": 137,
      "Ī": 138,
      "ī": 139,
      "Ĭ": 140,
      "į": 141,
      "Ĳ": 142,
      "ĳ": 143,
      "Ĵ": 144,
      "ĵ": 145,
      "Ķ": 146,
      "ķ": 147,
      "ĸ": 148,
      "Ĺ": 149,
      "ĺ": 150,
      "Ļ": 151,
      "ļ": 152,
      "ľ": 153,
      "Ŀ": 154,
      "Ł": 155,
      "ł": 156,
      "Ġt": 157,
      "he": 158,
      "Ġa": 159,
      "in": 160,
      "Ġs": 161,
      "Ġw": 162,
      "Ġthe": 163,
      "ou": 164,
      "re": 165,
      "nd": 166,
      "Ġo": 167,
      "ha": 168,
      "Ġm": 169,
      "âĢ": 170,
      "Ġb": 171,
      "er": 172,
      "is": 173,
      "Ġf": 174,
      "it": 175,
      "Ġc": 176,
      "ĠĊ": 177,
      "or": 178,
      "ll": 179,
      "en": 180,
      "on": 181,
      "Ġand": 182,
      "Ġd": 183,
      "ed": 184,
      "es": 185,
      "Ġto": 186,
      "ĠI": 187,
      "ing": 188,
      "Ġh": 189,
      "Ġof": 190,
      "Ġl": 191,
      "ar": 192,
      "Ġp": 193,
      "Ġn": 194,
      "Ġhe": 195,
      "âĢĻ": 196,
      "an": 197,
      "Ġin": 198,
      "at": 199,
      "Ġth": 200,
      "Ġy": 201,
      "om": 202,
      "hat": 203,
      "as": 204,
      "ĠT": 205,
      "Ġg": 206,
      "ot": 207,
      "ow": 208,
      "Ġha": 209,
      "Ġyou": 210,
      "Ġbe": 211,
      "ve": 212,
      "ĠA": 213,
      "le": 214,
      "st": 215,
      "ce": 216,
      "ld": 217,
      "se": 218,
      "Ġe": 219,
      "im": 220,
      "ut": 221,
      "gh": 222,
      "et": 223,
      "ĠĠ": 224,
      "ay": 225,
      "ch": 226,
      "ith": 227,
      "Ġthat": 228,
      "id": 229,
      "Ġit": 230,
      "ĠS": 231,
      "ir": 232,
      "ly": 233,
      "Ġu": 234,
      "ĠW": 235,
      "Ġhis": 236,
      "Ġwith": 237,
      "ent": 238,
      "Ġfor": 239,
      "Ġon": 240,
      "Ġre": 241,
      "Ġmy": 242,
      "ĠH": 243,
      "ĠâĢ": 244,
      "ad": 245,
      "Ġme": 246,
      "Ġnot": 247,
      "ri": 248,
      "Ġst": 249,
      "Ġwe": 250,
      "ver": 251,
      "ght": 252,
      "ro": 253,
      "ĠâĢľ": 254,
      "al": 255,
      "Ġis": 256,
      "âĢĿ": 257,
      "Ġas": 258,
      "ill": 259,
      "ĠM": 260,
      "Ġwas": 261,
      "ke": 262,
      "ĠB": 263,
      "oo": 264,
      "ĠThe": 265,
      "her": 266,
      "ion": 267,
      "ra": 268,
      "Ġwh": 269,
      "ter": 270,
      "ĠC": 271,
      "our": 272,
      "ur": 273,
      "Ġhim": 274,
      "ould": 275,
      "ct": 276,
      "Ġher": 277,
      "Ġso": 278,
      "ck": 279,
      "Ġse": 280,
      "ain": 281,
      "ĠP": 282,
      "Ġan": 283,
      "us": 284,
      "am": 285,
      "ore": 286,
      "ome": 287,
      "Ġli": 288,
      "ĠL": 289,
      "Ġde": 290,
      "ĠAnd": 291,
      "Ġk": 292,
      "Ġall": 293,
      "Ġhave": 294,
      "ĠF": 295,
      "ess": 296,
      "Ġat": 297,
      "Ġthis": 298,
      "out": 299,
      "Ġsu": 300,
      "il": 301,
      "ĠO": 302,
      "ĠG": 303,
      "Ġyour": 304,
      "Ġbut": 305,
      "Ġdo": 306,
      "ge": 307,
      "Ġsh": 308,
      "rom": 309,
      "if": 310,
      "pe": 311,
      "ĠD": 312,
      "Ġhad": 313,
      "Ġthou": 314,
      "ĠE": 315,
      "ĠĠĠĠ": 316,
      "Ġsa": 317,
      "ight": 318,
      "est": 319,
      "and": 320,
      "Ġby": 321,
      "ood": 322,
      "Ġshe": 323,
      "Ġv": 324,
      "art": 325,
      "Ġno": 326,
      "Ġwhe": 327,
      "nt": 328,
      "Ġfrom": 329,
      "ic": 330,
      "ĠN": 331,
      "qu": 332,
      "all": 333,
      "Ġne": 334,
      "Ġup": 335,
      "Ġwill": 336,
      "ord": 337,
      "ul": 338,
      "ard": 339,
      "Ġsha": 340,
      "ust": 341,
      "ant": 342,
      "red": 343,
      "ĠHe": 344,
      "âĢĶ": 345,
      "Ġr": 346,
      "Ġcon": 347,
      "ous": 348,
      "Ġkn": 349,
      "Ġor": 350,
      "ell": 351,
      ".âĢĿ": 352,
      "th": 353,
      "ble": 354,
      "ong": 355,
      "Ġman": 356,
      "res": 357,
      "ind": 358,
      "Ġthey": 359,
      "Ġare": 360,
      "ich": 361,
      "em": 362,
      "Ġgo": 363,
      "ie": 364,
      "ound": 365,
      "ast": 366,
      "ak": 367,
      "Ġlo": 368,
      "lf": 369,
      "ers": 370,
      "han": 371,
      "pp": 372,
      "Ġthem": 373,
      "one": 374,
      "Ġcom": 375,
      "ake": 376,
      "Ġthere": 377,
      "ĠTh": 378,
      "ry": 379,
      "Ġtheir": 380,
      "un": 381,
      "Ġwould": 382,
      "ven": 383,
      "ine": 384,
      "Ġle": 385,
      "ame": 386,
      "um": 387,
      "ĠY": 388,
      "Ġone": 389,
      "la": 390,
      "own": 391,
      "fe": 392,
      "Ġwhich": 393,
      "ive": 394,
      "ate": 395,
      "very": 396,
      "Ġwere": 397,
      "Ġam": 398,
      "Ġal": 399,
      "ĠBut": 400,
      "ĠR": 401,
      "Ġar": 402,
      "Ġfe": 403,
      "Ġwhat": 404,
      "reat": 405,
      "ep": 406,
      "ook": 407,
      "Ġfa": 408,
      "Ġout": 409,
      "Ġwho": 410,
      "Ġ[": 411,
      "ost": 412,
      "ation": 413,
      "Ġwor": 414,
      "Ġex": 415,
      "ort": 416,
      "Ġsp": 417,
      "Ġthy": 418,
      "EN": 419,
      "self": 420,
      "Ġour": 421,
      "Ġshall": 422,
      "Ġcan": 423,
      "ER": 424,
      "ol": 425,
      "ist": 426,
      "Ġwhen": 427,
      "Ġmore": 428,
      "Ġun": 429,
      "Ġj": 430,
      "Ġag": 431,
      "ig": 432,
      "Ġnow": 433,
      "Ġif": 434,
      "ĠWh": 435,
      "Ġsaid": 436,
      "ue": 437,
      "end": 438,
      "ĠJ": 439,
      "ide": 440,
      "od": 441,
      "Ġknow": 442,
      "ther": 443,
      "Ġus": 444,
      "Ġab": 445,
      "--": 446,
      "li": 447,
      "Ġthen": 448,
      "Ġsay": 449,
      "US": 450,
      "ĠTo": 451,
      "ure": 452,
      "Ġint": 453,
      "fore": 454,
      "Ġtr": 455,
      "pt": 456,
      "ink": 457,
      "Ġsee": 458,
      "au": 459,
      "Ġ[_": 460,
      "we": 461,
      "IN": 462,
      "Ġgood": 463,
      "Ġsome": 464,
      "Ġbl": 465,
      "._": 466,
      "ĠK": 467,
      "os": 468,
      "Ġlike": 469,
      "Ġany": 470,
      "Ġro": 471,
      "Ġpro": 472,
      "Ġthan": 473,
      "ish": 474,
      "Ġdid": 475,
      "Ġpr": 476,
      "AR": 477,
      "Ġqu": 478,
      "ough": 479,
      "Ġtim": 480,
      "other": 481,
      "ose": 482,
      "op": 483,
      "ĠThat": 484,
      "ity": 485,
      "Ġhand": 486,
      "ance": 487,
      "Ġthee": 488,
      "Ġtoo": 489,
      "AN": 490,
      "ather": 491,
      "ars": 492,
      "el": 493,
      "wn": 494,
      "urn": 495,
      "Ġbeen": 496,
      "are": 497,
      "Ġcould": 498,
      "ves": 499,
      "ĠâĢĻ": 500,
      "Ġagain": 501,
      "way": 502,
      ",âĢĿ": 503,
      "Ġbr": 504,
      "ES": 505,
      "Ġen": 506,
      "._]": 507,
      "Ġmay": 508,
      "oth": 509,
      "ber": 510,
      "Ġmust": 511,
      "Ġother": 512,
      "ree": 513,
      "itt": 514,
      "ies": 515,
      "Ġshould": 516,
      "ice": 517,
      "ond": 518,
      "Ġaf": 519,
      "ved": 520,
      "ath": 521,
      "Ġlet": 522,
      "Ġhere": 523,
      "Ġdis": 524,
      "Ġmad": 525,
      "ass": 526,
      "Ġlook": 527,
      "old": 528,
      "ĠWhat": 529,
      "ĠEn": 530,
      "ĠIt": 531,
      "ings": 532,
      "Ġspe": 533,
      "uch": 534,
      "ON": 535,
      "ire": 536,
      "Ġcome": 537,
      "ave": 538,
      "ful": 539,
      "ence": 540,
      "Ġtime": 541,
      "Ġ_": 542,
      "hed": 543,
      "Ġch": 544,
      "Ġupon": 545,
      "Ġsuch": 546,
      "ĠWhe": 547,
      "ect": 548,
      "ag": 549,
      "ud": 550,
      "ite": 551,
      "ci": 552,
      "Ġwell": 553,
      "Ġday": 554,
      "Ġlove": 555,
      "able": 556,
      "Ġey": 557,
      "Ġgreat": 558,
      "Ġfl": 559,
      "ile": 560,
      "Ġinto": 561,
      "row": 562,
      "ĠFor": 563,
      "ick": 564,
      "hing": 565,
      "Ġhow": 566,
      "age": 567,
      "orn": 568,
      "Ġoff": 569,
      "ness": 570,
      "Ġdown": 571,
      "Ġim": 572,
      "ise": 573,
      "Ġtw": 574,
      "Ġpo": 575,
      "ress": 576,
      "Ġcl": 577,
      "?âĢĿ": 578,
      "Ġvery": 579,
      "ip": 580,
      "ack": 581,
      "Ġra": 582,
      "Ġpl": 583,
      "ĠYou": 584,
      "ark": 585,
      "ab": 586,
      "ount": 587,
      "Ġlord": 588,
      "Ġover": 589,
      "ST": 590,
      "ĠV": 591,
      "Ġmake": 592,
      "ull": 593,
      "Ġcha": 594,
      "ft": 595,
      "ĠMr": 596,
      "per": 597,
      "Ġwhere": 598,
      "ach": 599,
      "Ġmuch": 600,
      "OR": 601,
      "ĠIf": 602,
      "Ġri": 603,
      "ĠIn": 604,
      "ĠAs": 605,
      "ĠU": 606,
      "Ġthese": 607,
      "cc": 608,
      "Ġbefore": 609,
      "Ġabout": 610,
      "iss": 611,
      "Ġthink": 612,
      "Ġfo": 613,
      "Ġad": 614,
      "Ġfri": 615,
      "ving": 616,
      "Ġway": 617,
      "ĠĠĠĠĠĠĠĠ": 618,
      "Ġpart": 619,
      "nder": 620,
      "ward": 621,
      "oy": 622,
      "Ġper": 623,
      "Ġhat": 624,
      "Ġstr": 625,
      "Ġdes": 626,
      "Ġpe": 627,
      "Ġnever": 628,
      "Ġown": 629,
      "ng": 630,
      "Ġyet": 631,
      "ment": 632,
      "ove": 633,
      "Ġlong": 634,
      "cy": 635,
      "ady": 636,
      "ĠMy": 637,
      "Ġsir": 638,
      "ans": 639,
      "Ġheart": 640,
      "ĠĠĠ": 641,
      "ap": 642,
      "Ġpre": 643,
      "ĠEnter": 644,
      "ss": 645,
      "Ġold": 646,
      "Ġevery": 647,
      "ff": 648,
      "Ġsc": 649,
      "Ġbet": 650,
      "ign": 651,
      "Ġmost": 652,
      "Ġhas": 653,
      "Ġmight": 654,
      "Ġmade": 655,
      "less": 656,
      "Ġfriend": 657,
      "IO": 658,
      "Ġmen": 659,
      "irst": 660,
      "ĠSt": 661,
      "Ġthr": 662,
      "Ġfather": 663,
      "Ġcomp": 664,
      "ĠSo": 665,
      "ouse": 666,
      "Ġtell": 667,
      "ittle": 668,
      "Ġsw": 669,
      "!âĢĿ": 670,
      "ĠWe": 671,
      "Ġrem": 672,
      "Ġhead": 673,
      "Ġhea": 674,
      "Ġwork": 675,
      "AL": 676,
      "ces": 677,
      "ĠBe": 678,
      "ject": 679,
      "Ġlittle": 680,
      "Ġgl": 681,
      "Ex": 682,
      "ĠShe": 683,
      "Ġtwo": 684,
      "ĠThis": 685,
      "Ġwar": 686,
      "Ġnight": 687,
      "ĠThere": 688,
      "Ġarm": 689,
      "igh": 690,
      "Ġaway": 691,
      "Ġwr": 692,
      "ild": 693,
      "Ġgr": 694,
      "Ġke": 695,
      "Ġeyes": 696,
      "Ġafter": 697,
      "led": 698,
      "ious": 699,
      "Ġye": 700,
      "Ġonly": 701,
      "Ġtake": 702,
      "Ġseem": 703,
      "ase": 704,
      "ĠThen": 705,
      "Ġpla": 706,
      "Ġword": 707,
      "ĠWith": 708,
      "ty": 709,
      "ions": 710,
      "ert": 711,
      "Ġho": 712,
      "Ġbeg": 713,
      "les": 714,
      "Ġhar": 715,
      "Ġlife": 716,
      "Ġback": 717,
      "ally": 718,
      "uck": 719,
      "unt": 720,
      "Ġever": 721,
      "Ġfirst": 722,
      "Ġcont": 723,
      "ING": 724,
      "ons": 725,
      "Ġthought": 726,
      "ĠWhen": 727,
      "ET": 728,
      "Ġgive": 729,
      "ried": 730,
      "OL": 731,
      "Ġspeak": 732,
      "Ġhon": 733,
      "Ġcall": 734,
      "ang": 735,
      "Ġsm": 736,
      "ors": 737,
      "ary": 738,
      "Ġhath": 739,
      "ince": 740,
      "Ġob": 741,
      "Ġrep": 742,
      "ren": 743,
      "eth": 744,
      "Ġunder": 745,
      "Ġgra": 746,
      "ac": 747,
      "Ġstill": 748,
      "ps": 749,
      "ene": 750,
      "ĠPro": 751,
      "IC": 752,
      "ither": 753,
      "Ġgod": 754,
      "EL": 755,
      "Ġswe": 756,
      "Ġeven": 757,
      "Ġthrough": 758,
      "Ġhouse": 759,
      "lem": 760,
      "ĠNo": 761,
      "ĠHow": 762,
      "erv": 763,
      "ause": 764,
      "Ġturn": 765,
      "alk": 766,
      "Ġcomm": 767,
      "Ġ(": 768,
      "int": 769,
      "ace": 770,
      "ock": 771,
      "Ġwat": 772,
      "Ġhear": 773,
      "Ġthough": 774,
      "ated": 775,
      "Ġbre": 776,
      "Ġple": 777,
      "Ġget": 778,
      "Ġpres": 779,
      "ne": 780,
      "hes": 781,
      "Ġcame": 782,
      "Ġres": 783,
      "de": 784,
      "ĠQ": 785,
      "te": 786,
      "ied": 787,
      "Ġbeing": 788,
      "Ġhimself": 789,
      "Ġgent": 790,
      "ield": 791,
      "ls": 792,
      "llow": 793,
      "Ġend": 794,
      "Ġwent": 795,
      "not": 796,
      "Ġpass": 797,
      "Ġbo": 798,
      "Ġdeath": 799,
      "Ġatt": 800,
      "Ġent": 801,
      "ought": 802,
      "cl": 803,
      "ced": 804,
      "Ġdone": 805,
      "Ġthose": 806,
      "Ġcour": 807,
      "Ġnothing": 808,
      "aster": 809,
      "ction": 810,
      "Ġset": 811,
      "IR": 812,
      "Ġcons": 813,
      "Ġsl": 814,
      "Ġmany": 815,
      "Ġblood": 816,
      "Ġco": 817,
      "Ġmar": 818,
      "ks": 819,
      "Ġheaven": 820,
      "Ġimp": 821,
      "ĠWhy": 822,
      "Ġwha": 823,
      "Ġlast": 824,
      "Ġbel": 825,
      "omet": 826,
      "Ġjust": 827,
      "Ġte": 828,
      "aid": 829,
      "Ġson": 830,
      "aught": 831,
      "ĠKing": 832,
      "Ġbec": 833,
      "ĠHis": 834,
      "Ġacc": 835,
      "rew": 836,
      "Ġret": 837,
      "ĠThey": 838,
      "IUS": 839,
      "Ġworld": 840,
      "ower": 841,
      "Ġnor": 842,
      "Ġwom": 843,
      "Ġgot": 844,
      "ody": 845,
      "ily": 846,
      "iv": 847,
      "ling": 848,
      "Ġmine": 849,
      "Ġdist": 850,
      "Ġem": 851,
      "Ġits": 852,
      "ĠNow": 853,
      "ret": 854,
      "Ġwant": 855,
      "Ġstand": 856,
      "ian": 857,
      "ctor": 858,
      "Ġright": 859,
      "pen": 860,
      "Ġcr": 861,
      "ĠKING": 862,
      "be": 863,
      "Ġput": 864,
      "Ġrest": 865,
      "oud": 866,
      "LO": 867,
      "Ġmind": 868,
      "ever": 869,
      "Ġplace": 870,
      "aw": 871,
      "AT": 872,
      "the": 873,
      "atter": 874,
      "Ġap": 875,
      "Ġcar": 876,
      "Ġfear": 877,
      "Ġsle": 878,
      "Ġthus": 879,
      "ĠGod": 880,
      "ows": 881,
      "ĠLu": 882,
      "Ġcannot": 883,
      "Ġfair": 884,
      "Ġyoung": 885,
      "ĠOf": 886,
      "ĠLet": 887,
      "Ġart": 888,
      "Ġwithout": 889,
      "ged": 890,
      "land": 891,
      "io": 892,
      "Ġtra": 893,
      "UC": 894,
      "uten": 895,
      "ĠIs": 896,
      "Ġbra": 897,
      "Ġnew": 898,
      "Ġface": 899,
      "Ġdead": 900,
      "Ġname": 901,
      "ub": 902,
      "ix": 903,
      "Ġwind": 904,
      "aint": 905,
      "oul": 906,
      "Ġhands": 907,
      "pect": 908,
      "for": 909,
      "IA": 910,
      "Ġsaw": 911,
      "Ġfell": 912,
      "Ġpur": 913,
      "Ġlight": 914,
      "Ġkind": 915,
      "ins": 916,
      "Ġdear": 917,
      "Ġboth": 918,
      "Ġsomet": 919,
      "Ġfind": 920,
      "ier": 921,
      "Ġsame": 922,
      "Ġapp": 923,
      "Ġonce": 924,
      "Ġbetter": 925,
      "Ġmyself": 926,
      "ia": 927,
      "berg": 928,
      "ĠDo": 929,
      "pl": 930,
      "Ġship": 931,
      "Ġtill": 932,
      "The": 933,
      "Ġkeep": 934,
      "get": 935,
      "Ġpoor": 936,
      "ens": 937,
      "utenberg": 938,
      "ife": 939,
      "IL": 940,
      "orrow": 941,
      "Ġhapp": 942,
      "ĠBy": 943,
      "Ġking": 944,
      "iness": 945,
      "oss": 946,
      "erm": 947,
      "Ġroom": 948,
      "AM": 949,
      "Ġans": 950,
      "Ġanother": 951,
      "lt": 952,
      "sh": 953,
      "Ġheard": 954,
      "sel": 955,
      "ĠOr": 956,
      "ool": 957,
      "Ġwhile": 958,
      "Ġcount": 959,
      "Ġgu": 960,
      "Ġste": 961,
      "ius": 962,
      "ARD": 963,
      "Ġfollow": 964,
      "ory": 965,
      "ult": 966,
      "ours": 967,
      "ople": 968,
      "Ġ1": 969,
      "its": 970,
      "Ġtook": 971,
      "ail": 972,
      "RO": 973,
      "iz": 974,
      "Ġfull": 975,
      "Ġthings": 976,
      "Ġbest": 977,
      "Ġfound": 978,
      "Ġkne": 979,
      "Ġmother": 980,
      "Ġtrue": 981,
      "ef": 982,
      "ĠAN": 983,
      "ĠWhere": 984,
      "Ġsea": 985,
      "Ġagainst": 986,
      "ĠThou": 987,
      "Ġdr": 988,
      "Ġfar": 989,
      "ph": 990,
      "ning": 991,
      "ister": 992,
      "Ġnat": 993,
      "Ġsweet": 994,
      "Ġsupp": 995,
      "ertain": 996,
      "ĠAt": 997,
      "ĠAn": 998,
      "ESS": 999,
      "me": 1000,
      "Ġsoon": 1001,
      "oke": 1002,
      "ĠTro": 1003,
      "Ġask": 1004,
      "Ġche": 1005,
      "ĠGutenberg": 1006,
      "eunt": 1007,
      "ĠMiss": 1008,
      "TER": 1009,
      "read": 1010,
      "thing": 1011,
      "Ġpeople": 1012,
      "Ġhel": 1013,
      "Ġthree": 1014,
      "Ġpresent": 1015,
      "ĠCome": 1016,
      "Ġhome": 1017,
      "Ġsub": 1018,
      "ats": 1019,
      "Ġthing": 1020,
      "Ġass": 1021,
      "Ġconf": 1022,
      "ief": 1023,
      "Ġchan": 1024,
      "Ġstre": 1025,
      "ĠAr": 1026,
      "ener": 1027,
      "Ġbrother": 1028,
      "ĠWhich": 1029,
      "ĠSc": 1030,
      "air": 1031,
      "Ġgi": 1032,
      "ĠWho": 1033,
      "Ġmo": 1034,
      "har": 1035,
      "Ġcou": 1036,
      "Ġfall": 1037,
      "ates": 1038,
      "Ġdra": 1039,
      "Ġdon": 1040,
      "fect": 1041,
      "Exeunt": 1042,
      "Ġpray": 1043,
      "Ġround": 1044,
      "Ġsays": 1045,
      "ĠLord": 1046,
      "Ġleft": 1047,
      "Ġleave": 1048,
      "Ġfeel": 1049,
      "ĠProject": 1050,
      "ENE": 1051,
      "Ġhold": 1052,
      "ĠSir": 1053,
      "Ġside": 1054,
      "ched": 1055,
      "ĠTH": 1056,
      "Ġsleep": 1057,
      "Exit": 1058,
      "Ġopen": 1059,
      "akes": 1060,
      "ont": 1061,
      "Ġsun": 1062,
      "Ġwa": 1063,
      "ru": 1064,
      "arn": 1065,
      "ations": 1066,
      "med": 1067,
      "Ġhast": 1068,
      "ute": 1069,
      "Ġpleas": 1070,
      "Ġreturn": 1071,
      "ason": 1072,
      "Ġgone": 1073,
      "Ġlive": 1074,
      "ible": 1075,
      "_.": 1076,
      "Ġinst": 1077,
      "ner": 1078,
      "Ġbed": 1079,
      "Ġel": 1080,
      "Ġappe": 1081,
      "Ġchild": 1082,
      "den": 1083,
      "Ġsec": 1084,
      "by": 1085,
      "ĠNor": 1086,
      "oub": 1087,
      "Ġhigh": 1088,
      "ents": 1089,
      "IT": 1090,
      "Ġseen": 1091,
      "ition": 1092,
      "Ġwhom": 1093,
      "ĠHere": 1094,
      "und": 1095,
      "Ġtold": 1096,
      "Ġdoor": 1097,
      "LE": 1098,
      "ides": 1099,
      "man": 1100,
      "ial": 1101,
      "Ġunt": 1102,
      "Ġshow": 1103,
      "Ġtre": 1104,
      "Ġnear": 1105,
      "ger": 1106,
      "most": 1107,
      "Ġdoth": 1108,
      "wards": 1109,
      "Ġbear": 1110,
      "uth": 1111,
      "tis": 1112,
      "Ġsk": 1113,
      "ĠPr": 1114,
      "Ġhope": 1115,
      "uke": 1116,
      "aking": 1117,
      "wer": 1118,
      "Ġarms": 1119,
      "Ġwhose": 1120,
      "Ġlay": 1121,
      "Ġdaught": 1122,
      "Ġca": 1123,
      "Ġdisc": 1124,
      "ple": 1125,
      "ised": 1126,
      "right": 1127,
      "Ġlooked": 1128,
      "Ġwhale": 1129,
      "oice": 1130,
      "Ġhonour": 1131,
      "mb": 1132,
      "Ġcare": 1133,
      "Ġchar": 1134,
      "ĠCa": 1135,
      "ĠâĢĺ": 1136,
      "Ġpers": 1137,
      "Ġhard": 1138,
      "ury": 1139,
      "----": 1140,
      "Ġhor": 1141,
      "Ġwords": 1142,
      "Ġmon": 1143,
      "Ġeach": 1144,
      "Ġsil": 1145,
      "Ġsur": 1146,
      "Ġwife": 1147,
      "Ġbro": 1148,
      "ison": 1149,
      "ĠSC": 1150,
      "Ġcomes": 1151,
      "Ġac": 1152,
      "ale": 1153,
      "ared": 1154,
      "ished": 1155,
      "Ġmean": 1156,
      "rib": 1157,
      "ĠCH": 1158,
      "Ġenough": 1159,
      "Ġeye": 1160,
      "arth": 1161,
      "xt": 1162,
      "Ġsat": 1163,
      "Ġseemed": 1164,
      "Ġsoul": 1165,
      "ĠII": 1166,
      "Ġ*": 1167,
      "ited": 1168,
      "Ġform": 1169,
      "ĠWell": 1170,
      "ĠAl": 1171,
      "ined": 1172,
      "ting": 1173,
      "Ġlady": 1174,
      "ĠOn": 1175,
      "Ġrec": 1176,
      "Ġhelp": 1177,
      "Ġtalk": 1178,
      "Ġgods": 1179,
      "Ġhum": 1180,
      "ways": 1181,
      "une": 1182,
      "lic": 1183,
      "ĠSe": 1184,
      "Ġwoman": 1185,
      "der": 1186,
      "Ġhalf": 1187,
      "AP": 1188,
      "Ġsomething": 1189,
      "Ġmis": 1190,
      "Ġserv": 1191,
      "ened": 1192,
      "Ġmaster": 1193,
      "Ġinde": 1194,
      "Ġnoble": 1195,
      "cept": 1196,
      "pped": 1197,
      "FF": 1198,
      "ĠSCENE": 1199,
      "Ġread": 1200,
      "Ġstay": 1201,
      "Ġfriends": 1202,
      "so": 1203,
      "ĠYour": 1204,
      "ered": 1205,
      "gether": 1206,
      "ains": 1207,
      "vers": 1208,
      "Ġgoing": 1209,
      "ween": 1210,
      "Ġbus": 1211,
      "ĠEng": 1212,
      "sses": 1213,
      "Ġbeh": 1214,
      "Ġsure": 1215,
      "Ġgentlem": 1216,
      "let": 1217,
      "side": 1218,
      "Ġdoes": 1219,
      "Ġbea": 1220,
      "Ġalong": 1221,
      "av": 1222,
      "Ġmatter": 1223,
      "Ġdark": 1224,
      "Ġuse": 1225,
      "eds": 1226,
      "Ġadv": 1227,
      "ĠNot": 1228,
      "tle": 1229,
      "Ġhus": 1230,
      "Ġland": 1231,
      "Ġgener": 1232,
      "Ġsound": 1233,
      "onder": 1234,
      "lack": 1235,
      "UR": 1236,
      "Ġpower": 1237,
      "ring": 1238,
      "Tis": 1239,
      "Ġwhole": 1240,
      "Ġplay": 1241,
      "Ġwit": 1242,
      "Ġearth": 1243,
      "selves": 1244,
      "ense": 1245,
      "Ġpri": 1246,
      "Ġrun": 1247,
      "ĠHer": 1248,
      "Ġdaughter": 1249,
      "ets": 1250,
      "Ġletter": 1251,
      "Ġwater": 1252,
      "Ġbreat": 1253,
      "Ġadd": 1254,
      "Ġsister": 1255,
      "Ġmorn": 1256,
      "ĠAll": 1257,
      "lysses": 1258,
      "ĠEli": 1259,
      "Ġkill": 1260,
      "ĠSha": 1261,
      "uty": 1262,
      "ENT": 1263,
      "ĠFIR": 1264,
      "ĠFIRST": 1265,
      "Ġmer": 1266,
      "ange": 1267,
      "vil": 1268,
      "Ġinc": 1269,
      "ĠEliz": 1270,
      "fort": 1271,
      "Ġmom": 1272,
      "ures": 1273,
      "Ġsent": 1274,
      "Ġair": 1275,
      "atch": 1276,
      "ĠĠĠĠĠĠĠĠĠĠĠĠĠĠĠĠ": 1277,
      "Ġelse": 1278,
      "ank": 1279,
      "Ġgold": 1280,
      "AC": 1281,
      "Ġcertain": 1282,
      "ross": 1283,
      "Ġamong": 1284,
      "ĠUlysses": 1285,
      "ĠMar": 1286,
      "Ġcur": 1287,
      "abeth": 1288,
      "Ġboy": 1289,
      "Ġcountry": 1290,
      "Ġindeed": 1291,
      "band": 1292,
      "Ġstrong": 1293,
      "ĠElizabeth": 1294,
      "Ġfore": 1295,
      "Ġstra": 1296,
      "Ġbelie": 1297,
      "ern": 1298,
      "Ġfire": 1299,
      "ĠOF": 1300,
      "oney": 1301,
      "Ġfight": 1302,
      "Ġspir": 1303,
      "Ġbody": 1304,
      "Ġgri": 1305,
      "TH": 1306,
      "Ġunc": 1307,
      "ĠLucy": 1308,
      "ĠScene": 1309,
      "Ġtri": 1310,
      "Ġgave": 1311,
      "âĦ": 1312,
      "âĦ¢": 1313,
      "hy": 1314,
      "Ġlaw": 1315,
      "lect": 1316,
      "irt": 1317,
      "anger": 1318,
      "arge": 1319,
      "Ġalways": 1320,
      "Ġanswer": 1321,
      "EC": 1322,
      "Ġforth": 1323,
      "ĠĠĠĠĠĠ": 1324,
      "ĠAy": 1325,
      "ĠAnt": 1326,
      "Ġvoice": 1327,
      "ĠGre": 1328,
      "Ġsince": 1329,
      "Ġlie": 1330,
      "ired": 1331,
      "Ġinf": 1332,
      "cei": 1333,
      "ift": 1334,
      "Ġhusband": 1335,
      "Ġposs": 1336,
      "Ġwithin": 1337,
      "Ġpoint": 1338,
      "Ġdie": 1339,
      "Ġalone": 1340,
      "ten": 1341,
      "Ġbring": 1342,
      "Ġmist": 1343,
      "ĠWill": 1344,
      "ĠJove": 1345,
      "Ġmin": 1346,
      "ants": 1347,
      "Ġdays": 1348,
      "Ġhour": 1349,
      "Ġbetween": 1350,
      "ilt": 1351,
      "ane": 1352,
      "iet": 1353,
      "ash": 1354,
      "gs": 1355,
      "Ġworth": 1356,
      "Ġground": 1357,
      "Ġexp": 1358,
      "Ġsight": 1359,
      "Ġreg": 1360,
      "ere": 1361,
      "Ġknew": 1362,
      "cious": 1363,
      "Ġmorning": 1364,
      "Ġbecause": 1365,
      "Ġill": 1366,
      "oll": 1367,
      "rance": 1368,
      "Ġtogether": 1369,
      "Ġfort": 1370,
      "AG": 1371,
      "Ġmoment": 1372,
      "Ġreason": 1373,
      "Ġmeet": 1374,
      "ken": 1375,
      "sand": 1376,
      "Ġind": 1377,
      "ĠGree": 1378,
      "Ġrather": 1379,
      "Ġstate": 1380,
      "AND": 1381,
      "ĠYet": 1382,
      "Ġstood": 1383,
      "Ġdro": 1384,
      "AS": 1385,
      "Ġaw": 1386,
      "Ġless": 1387,
      "ati": 1388,
      "ĠDuke": 1389,
      "Ġear": 1390,
      "Ġfam": 1391,
      "Ġdeep": 1392,
      "Ġfool": 1393,
      "oubt": 1394,
      ".âĢĶ": 1395,
      "PH": 1396,
      "Ġwish": 1397,
      "ade": 1398,
      "ĠGo": 1399,
      "Ġcle": 1400,
      "ĠUn": 1401,
      "Ġtherefore": 1402,
      "Ġyears": 1403,
      "ime": 1404,
      "ular": 1405,
      "Ġbes": 1406,
      "als": 1407,
      "Ġnone": 1408,
      "Ġinv": 1409,
      "Ġref": 1410,
      "ĠFrom": 1411,
      "up": 1412,
      "Ġcop": 1413,
      "ec": 1414,
      "Ġvi": 1415,
      "ĠQue": 1416,
      "Ġstri": 1417,
      "Ġact": 1418,
      "Ġfield": 1419,
      "Ġdif": 1420,
      "ently": 1421,
      "Ġherself": 1422,
      "Ġinter": 1423,
      "ating": 1424,
      "uri": 1425,
      "Ġprom": 1426,
      "Ġspoke": 1427,
      "ual": 1428,
      "Ġaround": 1429,
      "ĠANT": 1430,
      "Ġwhite": 1431,
      "Ġalmost": 1432,
      "IS": 1433,
      "nce": 1434,
      "ron": 1435,
      "ĠGood": 1436,
      "Ġothers": 1437,
      "LA": 1438,
      "gg": 1439,
      "Ġlost": 1440,
      "ĠRO": 1441,
      "ured": 1442,
      "Ġtong": 1443,
      "Ġins": 1444,
      "ORD": 1445,
      "uff": 1446,
      "ouch": 1447,
      "Ġremem": 1448,
      "Ġdel": 1449,
      "Ġsing": 1450,
      "Ġfree": 1451,
      "day": 1452,
      "outh": 1453,
      "IAN": 1454,
      "like": 1455,
      "osed": 1456,
      "Ġbusiness": 1457,
      "CE": 1458,
      "Ġwalk": 1459,
      "Ġcourse": 1460,
      "Ġanything": 1461,
      "_.]": 1462,
      "Ġpra": 1463,
      "Ġcourt": 1464,
      "Ġwhy": 1465,
      "Ġthousand": 1466,
      "Ġser": 1467,
      "ump": 1468,
      "Ġpeace": 1469,
      "Ġnext": 1470,
      "ĠMrs": 1471,
      "body": 1472,
      "Ġbegan": 1473,
      "ĠQU": 1474,
      "ung": 1475,
      "Ġwall": 1476,
      "Ġtimes": 1477,
      "Ġchief": 1478,
      "ying": 1479,
      "ze": 1480,
      "Ġexc": 1481,
      "Ġtown": 1482,
      "UT": 1483,
      "Ġcause": 1484,
      "orry": 1485,
      "Ġsn": 1486,
      "EM": 1487,
      "hab": 1488,
      "Ġfr": 1489,
      "Ġbreak": 1490,
      "og": 1491,
      "You": 1492,
      "Ġbrought": 1493,
      "Ġstrange": 1494,
      "Ġsword": 1495,
      "ship": 1496,
      "aken": 1497,
      "Ġvis": 1498,
      "race": 1499,
      "Ġplain": 1500,
      "Ġcoun": 1501,
      "Ġrel": 1502,
      "Ġocc": 1503,
      "Ġsail": 1504,
      "ery": 1505,
      "Ġtowards": 1506,
      "ĠRome": 1507,
      "Ġext": 1508,
      "ĠCHAP": 1509,
      "ĠCHAPTER": 1510,
      "ĠLe": 1511,
      "any": 1512,
      "Ġcalled": 1513,
      "Ġfew": 1514,
      "ĠHector": 1515,
      "Ġturned": 1516,
      "Ġdoubt": 1517,
      "alm": 1518,
      "Ġquest": 1519,
      "Ġdri": 1520,
      "ully": 1521,
      "ceed": 1522,
      "ained": 1523,
      "dden": 1524,
      "Ġcried": 1525,
      "Ġgre": 1526,
      "ider": 1527,
      "ĠDe": 1528,
      "ĠThy": 1529,
      "Ġclose": 1530,
      "STA": 1531,
      "Ġwrong": 1532,
      "ĠShall": 1533,
      "ention": 1534,
      "ĠMAR": 1535,
      "Ġneed": 1536,
      "pr": 1537,
      "ream": 1538,
      "Ġyouth": 1539,
      "rence": 1540,
      "use": 1541,
      "Ġnature": 1542,
      "Ġquite": 1543,
      "Ġperson": 1544,
      "Ġyourself": 1545,
      "OND": 1546,
      "ird": 1547,
      "Ġprison": 1548,
      "ude": 1549,
      "Ġfellow": 1550,
      "Ġcoming": 1551,
      "Ġquick": 1552,
      "come": 1553,
      "Ġmark": 1554,
      "Ġfur": 1555,
      "ĠThan": 1556,
      "Ġhaving": 1557,
      "KE": 1558,
      "amp": 1559,
      "ANT": 1560,
      "Ġtears": 1561,
      "Ġbelieve": 1562,
      "UL": 1563,
      "Ġblack": 1564,
      "Ġcreat": 1565,
      "ony": 1566,
      "stand": 1567,
      "form": 1568,
      "Ġmur": 1569,
      "Ġdec": 1570,
      "Ġbu": 1571,
      "Ġmaid": 1572,
      "Ġcor": 1573,
      "Ġval": 1574,
      "Ġtem": 1575,
      "Ġthine": 1576,
      "Ġcra": 1577,
      "ĠPe": 1578,
      "oe": 1579,
      "Ġdire": 1580,
      "Ġmeans": 1581,
      "ical": 1582,
      "Ġfelt": 1583,
      "Ġjo": 1584,
      "head": 1585,
      "enn": 1586,
      "Ġlate": 1587,
      "Ġalso": 1588,
      "Ġshort": 1589,
      "men": 1590,
      "ĠNay": 1591,
      "laim": 1592,
      "Ġsend": 1593,
      "Ġtruth": 1594,
      "Ġgiven": 1595,
      "mm": 1596,
      "rent": 1597,
      "Ġwonder": 1598,
      "Ġitself": 1599,
      "Ġcommand": 1600,
      "Ġattend": 1601,
      "ICH": 1602,
      "of": 1603,
      "ĠDU": 1604,
      "Ġpret": 1605,
      "Ġtry": 1606,
      "ouble": 1607,
      "Ġpar": 1608,
      "Ġjoy": 1609,
      "ches": 1610,
      "IM": 1611,
      "ech": 1612,
      "ĠOur": 1613,
      "Ġvill": 1614,
      "ĠTroy": 1615,
      "Ġdraw": 1616,
      "What": 1617,
      "imes": 1618,
      "pose": 1619,
      "Ġsort": 1620,
      "Ġbound": 1621,
      "Ġhur": 1622,
      "Ġdidn": 1623,
      "Ġbehind": 1624,
      "Ġwound": 1625,
      "Ġbow": 1626,
      "ley": 1627,
      "Ġsuit": 1628,
      "Ġsudden": 1629,
      "Ġdread": 1630,
      "Ġstart": 1631,
      "ED": 1632,
      "haps": 1633,
      "ĠLE": 1634,
      "ĠRICH": 1635,
      "Ġheav": 1636,
      "ham": 1637,
      "Ġmakes": 1638,
      "iew": 1639,
      "Ġsmall": 1640,
      "bs": 1641,
      "Ġgentle": 1642,
      "aring": 1643,
      "ments": 1644,
      "Ġsign": 1645,
      "Ġred": 1646,
      "ptain": 1647,
      "Ġcrown": 1648,
      "ĠThus": 1649,
      "irc": 1650,
      "ressed": 1651,
      "Ġfoot": 1652,
      "Ġter": 1653,
      "Ġthank": 1654,
      "Ġtongue": 1655,
      "ĠTom": 1656,
      "Ġfly": 1657,
      "ek": 1658,
      "Ġwood": 1659,
      "ĠHave": 1660,
      "ortal": 1661,
      "Ġfour": 1662,
      "ster": 1663,
      "illes": 1664,
      "ceived": 1665,
      "ĠRICHARD": 1666,
      "ib": 1667,
      "oh": 1668,
      "ready": 1669,
      "Ġfal": 1670,
      "Ġasked": 1671,
      "Ġfaith": 1672,
      "Ġgentleman": 1673,
      "Ġgrow": 1674,
      "umb": 1675,
      "Ġaff": 1676,
      "Ġopp": 1677,
      "Ġdet": 1678,
      "ĠSEC": 1679,
      "Ġgrace": 1680,
      "cess": 1681,
      "Ġsad": 1682,
      "Ġbid": 1683,
      "esty": 1684,
      "Ġcond": 1685,
      "ĠLA": 1686,
      "Ġknown": 1687,
      "ued": 1688,
      "Ġcold": 1689,
      "INE": 1690,
      "Ġprov": 1691,
      "Ġwatch": 1692,
      "ĠSECOND": 1693,
      "RY": 1694,
      "ering": 1695,
      "Ġworks": 1696,
      "here": 1697,
      "Ġcry": 1698,
      "Ġsorrow": 1699,
      "Ġlooking": 1700,
      "Ġdiv": 1701,
      ",âĢĶ": 1702,
      "Ġsuff": 1703,
      "EEN": 1704,
      "ĠAhab": 1705,
      "ĠThese": 1706,
      "It": 1707,
      "ott": 1708,
      "eg": 1709,
      "well": 1710,
      "ĠFrance": 1711,
      "Ġlead": 1712,
      "chilles": 1713,
      "ush": 1714,
      "Ġev": 1715,
      "ĠAC": 1716,
      "no": 1717,
      "fully": 1718,
      "enty": 1719,
      "Ġque": 1720,
      "Ġcirc": 1721,
      "ĠSome": 1722,
      "ax": 1723,
      "ues": 1724,
      "Ġmet": 1725,
      "Ġhowever": 1726,
      "Ġbreath": 1727,
      "ĠQUEEN": 1728,
      "ca": 1729,
      "ĠAchilles": 1730,
      "Ġjud": 1731,
      "Ġnews": 1732,
      "ID": 1733,
      "WN": 1734,
      ":--": 1735,
      "that": 1736,
      "Ġi": 1737,
      "iter": 1738,
      "esar": 1739,
      "ĠBr": 1740,
      "lied": 1741,
      "Ġplease": 1742,
      "Ġoften": 1743,
      "ĠMin": 1744,
      "ok": 1745,
      "Ġeither": 1746,
      "Ġcomfort": 1747,
      "Ġwomen": 1748,
      "ey": 1749,
      "ork": 1750,
      "Ġbat": 1751,
      "Ġgir": 1752,
      "..": 1753,
      "Ġbook": 1754,
      "ĠAg": 1755,
      "UN": 1756,
      "ask": 1757,
      "Ġterm": 1758,
      "Ġsla": 1759,
      "Ġere": 1760,
      "Ġeas": 1761,
      "Ġkiss": 1762,
      "Ġsold": 1763,
      "Ġalready": 1764,
      "Ġview": 1765,
      "to": 1766,
      "Ġpa": 1767,
      "ĠFAL": 1768,
      "STAFF": 1769,
      "ĠFALSTAFF": 1770,
      "Ġsit": 1771,
      "Ġhappy": 1772,
      "Ġobs": 1773,
      "Ġbrave": 1774,
      "ities": 1775,
      "Ġbless": 1776,
      "Ġhang": 1777,
      "az": 1778,
      "ĠĠĠĠĠĠĠ": 1779,
      "ronic": 1780,
      "Ġdest": 1781,
      "Ġrequ": 1782,
      "ĠUp": 1783,
      "mp": 1784,
      "Ġes": 1785,
      "ike": 1786,
      "Ġmoney": 1787,
      "Ġvirt": 1788,
      "Ġshame": 1789,
      "Ġthemselves": 1790,
      "ĠDUKE": 1791,
      "Ġdep": 1792,
      "Ġfeet": 1793,
      "alth": 1794,
      "ĠPR": 1795,
      "ingly": 1796,
      "Ġgrief": 1797,
      "oor": 1798,
      "MAN": 1799,
      "rant": 1800,
      "ĠCh": 1801,
      "ceive": 1802,
      "used": 1803,
      "ĠOne": 1804,
      "Ġbreast": 1805,
      "Ġemb": 1806,
      "Ġsubject": 1807,
      "Ġfurther": 1808,
      "lish": 1809,
      "Ġtaken": 1810,
      "Ġwild": 1811,
      "Ġmid": 1812,
      "orm": 1813,
      "ĠLUC": 1814,
      "ohn": 1815,
      "cri": 1816,
      "tern": 1817,
      "Ġcut": 1818,
      "eng": 1819,
      "ĠNe": 1820,
      "Ġcontin": 1821,
      "Ġappear": 1822,
      "ĠCaesar": 1823,
      "Ġspirit": 1824,
      "ught": 1825,
      "Ġmount": 1826,
      "ousin": 1827,
      "Ġthoughts": 1828,
      "uc": 1829,
      "Ġlow": 1830,
      "Ġbar": 1831,
      "Ġvain": 1832,
      "Ġunderstand": 1833,
      "ires": 1834,
      "ICK": 1835,
      "Ġhorse": 1836,
      "yal": 1837,
      "Ġpay": 1838,
      "ĠAR": 1839,
      "ĠSh": 1840,
      "Ġconsider": 1841,
      "cha": 1842,
      "Ġdream": 1843,
      "ĠEngland": 1844,
      "Ġgeneral": 1845,
      "urch": 1846,
      "Ġage": 1847,
      "oom": 1848,
      "Ġfast": 1849,
      "Ġglad": 1850,
      "ubb": 1851,
      "anc": 1852,
      "Ġshore": 1853,
      "Ġmanner": 1854,
      "ement": 1855,
      "Ġfav": 1856,
      "Ġabove": 1857,
      "Ġprof": 1858,
      "Ġappro": 1859,
      "wh": 1860,
      "Ġhair": 1861,
      "vel": 1862,
      "Ġdrink": 1863,
      "act": 1864,
      "Ġden": 1865,
      "ĠJohn": 1866,
      "Ġhence": 1867,
      "ĠMad": 1868,
      "Ġwhether": 1869,
      "Ġbeauty": 1870,
      "ines": 1871,
      "Ġlad": 1872,
      "ĠChar": 1873,
      "ĠDar": 1874,
      ".âĢĻ": 1875,
      "fter": 1876,
      "Ġlau": 1877,
      "Ġlies": 1878,
      "RESS": 1879,
      "hen": 1880,
      "Ġborn": 1881,
      "ards": 1882,
      "ising": 1883,
      "iting": 1884,
      "Ġkept": 1885,
      "dy": 1886,
      "ug": 1887,
      "ones": 1888,
      "ĠEven": 1889,
      "Ġcopy": 1890,
      "Ġlist": 1891,
      "Ġforg": 1892,
      "Ġleast": 1893,
      "Ġprev": 1894,
      "Ġtouch": 1895,
      "Ġadm": 1896,
      "Ġfalse": 1897,
      "IST": 1898,
      "Ġdisp": 1899,
      "ots": 1900,
      "Ġforce": 1901,
      "riage": 1902,
      "lice": 1903,
      "ĠANTON": 1904,
      "Ġmouth": 1905,
      "Ġbold": 1906,
      "lly": 1907,
      "ote": 1908,
      "rench": 1909,
      "po": 1910,
      "Ġlaid": 1911,
      "Ġproud": 1912,
      "Ġdanger": 1913,
      "ution": 1914,
      "Ġdevil": 1915,
      "Ġir": 1916,
      "ĠAre": 1917,
      "umber": 1918,
      "ĠDarcy": 1919,
      "oose": 1920,
      "rac": 1921,
      "Ġquestion": 1922,
      "Ġelect": 1923,
      "ably": 1924,
      "Ġcommon": 1925,
      "--------": 1926,
      "OST": 1927,
      "Oh": 1928,
      "Ġpati": 1929,
      "owers": 1930,
      "Ġpurpose": 1931,
      "Ġten": 1932,
      "Ġtrust": 1933,
      "ĠQueen": 1934,
      "Ġlearn": 1935,
      "Ġhost": 1936,
      "Ġready": 1937,
      "cks": 1938,
      "ĠRe": 1939,
      "ages": 1940,
      "LES": 1941,
      "Ġsim": 1942,
      "Ġweep": 1943,
      "ardon": 1944,
      "Ġabs": 1945,
      "Ġbegin": 1946,
      "cend": 1947,
      "Ġpretty": 1948,
      "Ġban": 1949,
      "ĠTroj": 1950,
      "To": 1951,
      "kes": 1952,
      "owed": 1953,
      "Ġdesp": 1954,
      "Ġpleasure": 1955,
      "ances": 1956,
      "Ġcousin": 1957,
      "Ġheld": 1958,
      "ĠPh": 1959,
      "iled": 1960,
      "Ġexpect": 1961,
      "Ġtend": 1962,
      "Ġfin": 1963,
      "Ġcase": 1964,
      "ĠPRO": 1965,
      "wered": 1966,
      "ĠIII": 1967,
      "Ġpast": 1968,
      "Ġhero": 1969,
      "ĠPRIN": 1970,
      "Ġsecond": 1971,
      "Ġmus": 1972,
      "Ġfle": 1973,
      "Ġremember": 1974,
      "uous": 1975,
      "ĠTe": 1976,
      "Ġbad": 1977,
      "ĠPer": 1978,
      "ately": 1979,
      "Ġanswered": 1980,
      "Ġstreng": 1981,
      "vere": 1982,
      "Ġpartic": 1983,
      "aj": 1984,
      "Ġseems": 1985,
      "Ġsaying": 1986,
      "Ġprep": 1987,
      "Ġrespect": 1988,
      "Ġpassed": 1989,
      "Ġdiffe": 1990,
      "Ġhither": 1991,
      "ĠAlice": 1992,
      "ging": 1993,
      "vi": 1994,
      "ĠFl": 1995,
      "Ġenem": 1996,
      "Ġterms": 1997,
      "Ġeat": 1998,
      "Ġused": 1999,
      "ĠACT": 2000,
      "bour": 2001,
      "Ġwel": 2002,
      "Ġlea": 2003,
      "Ġprop": 2004,
      "Aside": 2005,
      "Ġsoft": 2006,
      "Ġshad": 2007,
      "Ġchange": 2008,
      "ĠTHE": 2009,
      "Ġunto": 2010,
      "Ġburn": 2011,
      "Ġyield": 2012,
      "Ġmighty": 2013,
      "ĠBefore": 2014,
      "ĠHEN": 2015,
      "ĠLook": 2016,
      "isf": 2017,
      "Ġequ": 2018,
      "Ġself": 2019,
      "ils": 2020,
      "Ġcharge": 2021,
      "ĠHENRY": 2022,
      "ided": 2023,
      "Ġseek": 2024,
      "Ġcloud": 2025,
      "Ġsto": 2026,
      "ms": 2027,
      "Ġdesire": 2028,
      "Ġeverything": 2029,
      "night": 2030,
      "Ġbit": 2031,
      "Ġgro": 2032,
      "ĠUpon": 2033,
      "ict": 2034,
      "Ġsick": 2035,
      "Ġpity": 2036,
      "Ġboat": 2037,
      "Ġdare": 2038,
      "Ġlab": 2039,
      "Ġpie": 2040,
      "ĠAm": 2041,
      "ĠCLO": 2042,
      "ility": 2043,
      "Ġwine": 2044,
      "Ġcol": 2045,
      "ĠBO": 2046,
      "undred": 2047,
      "LI": 2048,
      "Ġincl": 2049,
      "Ġang": 2050,
      "iles": 2051,
      "Ġrage": 2052,
      "Ġheavy": 2053,
      "No": 2054,
      "ĠLady": 2055,
      "lies": 2056,
      "Ġtrans": 2057,
      "oes": 2058,
      "Ġline": 2059,
      "Ġprot": 2060,
      "Ġstraight": 2061,
      "Ġlarge": 2062,
      "ater": 2063,
      "ĠMay": 2064,
      "ĠThough": 2065,
      "fend": 2066,
      "Ġknows": 2067,
      "Ġperhaps": 2068,
      "ĠLuc": 2069,
      "Ġfill": 2070,
      "ĠLond": 2071,
      "ĠDid": 2072,
      "Ġinstant": 2073,
      "Ġqueen": 2074,
      "ĠLondon": 2075,
      "UM": 2076,
      "ident": 2077,
      "ĠCan": 2078,
      "Ġeng": 2079,
      "ĠROS": 2080,
      "_,": 2081,
      "He": 2082,
      "cell": 2083,
      "Ġdost": 2084,
      "Ġfault": 2085,
      "Ġgrave": 2086,
      "ĠEnglish": 2087,
      "Ġelectronic": 2088,
      "Ġcast": 2089,
      "Ġdin": 2090,
      "ĠGive": 2091,
      "ĠJim": 2092,
      "Ġsense": 2093,
      "eness": 2094,
      "Ġlips": 2095,
      "Ġroyal": 2096,
      "ASS": 2097,
      "ĠBR": 2098,
      "Ġhours": 2099,
      "Ġimm": 2100,
      "Ġbur": 2101,
      "arch": 2102,
      "empt": 2103,
      "Ġwarn": 2104,
      "And": 2105,
      "Ġbene": 2106,
      "ices": 2107,
      "Ġstrength": 2108,
      "AB": 2109,
      "LET": 2110,
      "cul": 2111,
      "ior": 2112,
      "uring": 2113,
      "Ġconc": 2114,
      "Ġquiet": 2115,
      "ries": 2116,
      "Ġsever": 2117,
      "Ġliving": 2118,
      "ĠLorry": 2119,
      "Ġshar": 2120,
      "Ġpurs": 2121,
      "oured": 2122,
      "ĠWha": 2123,
      "Ġsus": 2124,
      "ĠHAM": 2125,
      "ĠEx": 2126,
      "itted": 2127,
      "Ġhonest": 2128,
      "ĠX": 2129,
      "Ġfix": 2130,
      "orge": 2131,
      "Ġhundred": 2132,
      "ĠWould": 2133,
      "Ġsumm": 2134,
      "ford": 2135,
      "iers": 2136,
      "Ġmadam": 2137,
      "ĠHAMLET": 2138,
      "II": 2139,
      "ĠTr": 2140,
      "Ġlim": 2141,
      "Ġspo": 2142,
      "Ġlords": 2143,
      "Ġstruck": 2144,
      "ennet": 2145,
      "bo": 2146,
      "Ġed": 2147,
      "ĠLy": 2148,
      "Ġfortune": 2149,
      "sed": 2150,
      "Ġbright": 2151,
      "Ġlonger": 2152,
      "Well": 2153,
      "ĠTell": 2154,
      "ĠPar": 2155,
      "erest": 2156,
      "dom": 2157,
      "ives": 2158,
      "over": 2159,
      "ĠED": 2160,
      "Ġwin": 2161,
      "ĠMaster": 2162,
      "ames": 2163,
      "Ġprove": 2164,
      "itting": 2165,
      "ney": 2166,
      "Ġide": 2167,
      "irm": 2168,
      "ĠEd": 2169,
      "Th": 2170,
      "oura": 2171,
      "Ġleng": 2172,
      "ural": 2173,
      "Ġlives": 2174,
      "under": 2175,
      "Ġfier": 2176,
      "Ġcity": 2177,
      "Ġquar": 2178,
      "Ġlooks": 2179,
      "Ġwindow": 2180,
      "resh": 2181,
      "Ġsatisf": 2182,
      "ler": 2183,
      "Ġwis": 2184,
      "ĠJane": 2185,
      "Ġguard": 2186,
      "Ġfamily": 2187,
      "Ġest": 2188,
      "Ġscar": 2189,
      "ĠVan": 2190,
      "Ġmod": 2191,
      "ĠTill": 2192,
      "ĠGe": 2193,
      "Ġgoes": 2194,
      "BER": 2195,
      "ror": 2196,
      "Ġdem": 2197,
      "Ġprince": 2198,
      "Ġresol": 2199,
      "Ġwelcome": 2200,
      "AST": 2201,
      "Ġtable": 2202,
      "Ġwret": 2203,
      "iful": 2204,
      "Ġsons": 2205,
      "Ġpain": 2206,
      "pend": 2207,
      "Ġrich": 2208,
      "alace": 2209,
      "Ġagre": 2210,
      "Ġdirect": 2211,
      "OM": 2212,
      "morrow": 2213,
      "ually": 2214,
      "Ġcap": 2215,
      "ĠBennet": 2216,
      "Ġdef": 2217,
      "Ġslow": 2218,
      "dle": 2219,
      "Ġfat": 2220,
      "cher": 2221,
      "gin": 2222,
      "Ġfive": 2223,
      "Ġyours": 2224,
      "Ġacqu": 2225,
      "Ġmistress": 2226,
      "Ġexpress": 2227,
      "!âĢĶ": 2228,
      "athan": 2229,
      "ĠSuch": 2230,
      "ĠYork": 2231,
      "Ġbecome": 2232,
      "tw": 2233,
      "Ġreven": 2234,
      "ĠTheir": 2235,
      "ĠWhose": 2236,
      "Ġobject": 2237,
      "urious": 2238,
      "Ġve": 2239,
      "Ġwon": 2240,
      "ĠCount": 2241,
      "Ġhate": 2242,
      "ĠTherefore": 2243,
      "Ġfavour": 2244,
      "Ġfra": 2245,
      "Ġdi": 2246,
      "Ġproper": 2247,
      "els": 2248,
      "airs": 2249,
      "Ġdelight": 2250,
      "asure": 2251,
      "Ġroll": 2252,
      "Ġain": 2253,
      "erve": 2254,
      "ĠFrench": 2255,
      "Ġsave": 2256,
      "fection": 2257,
      "Ġsometimes": 2258,
      "iant": 2259,
      "Ġfate": 2260,
      "Ġneither": 2261,
      "Ġmarry": 2262,
      "CH": 2263,
      "Ġfine": 2264,
      "Ġund": 2265,
      "ĠCl": 2266,
      "Ġdev": 2267,
      "Ġshalt": 2268,
      "ĠWhile": 2269,
      "oly": 2270,
      "Ġlose": 2271,
      "Ġrose": 2272,
      "clus": 2273,
      "ĠSee": 2274,
      "Ġparticular": 2275,
      "Ġlength": 2276,
      "omer": 2277,
      "Ġran": 2278,
      "Ġorder": 2279,
      "bb": 2280,
      "oved": 2281,
      "Ġut": 2282,
      "Ġforward": 2283,
      "ĠDef": 2284,
      "UCH": 2285,
      "Ġchance": 2286,
      "Ġgirl": 2287,
      "But": 2288,
      "oun": 2289,
      "ĠHen": 2290,
      "Ġru": 2291,
      "Ġreplied": 2292,
      "Ġslain": 2293,
      "Ġsecret": 2294,
      "Ġuntil": 2295,
      "rible": 2296,
      "asion": 2297,
      "ĠFound": 2298,
      "pping": 2299,
      "ĠYes": 2300,
      "overed": 2301,
      "ached": 2302,
      "hard": 2303,
      "Ġuncle": 2304,
      "dd": 2305,
      "Ġmot": 2306,
      "Ġhot": 2307,
      "Ġyear": 2308,
      "Ġpossess": 2309,
      "My": 2310,
      "ĠCom": 2311,
      "ERO": 2312,
      "Ġtrouble": 2313,
      "ESTER": 2314,
      "ĠHenry": 2315,
      "but": 2316,
      "Ġcross": 2317,
      "ĠWas": 2318,
      "achus": 2319,
      "Ġremain": 2320,
      "Ġchildren": 2321,
      "ajesty": 2322,
      "Ġcompany": 2323,
      "Ġaccount": 2324,
      "ining": 2325,
      "Ġsix": 2326,
      "Ġmain": 2327,
      "Ġpost": 2328,
      "Ġservice": 2329,
      "Ġmortal": 2330,
      "gor": 2331,
      "where": 2332,
      "ĠTO": 2333,
      "Ġreally": 2334,
      "ĠLike": 2335,
      "Ġsake": 2336,
      "erved": 2337,
      "Ġreceived": 2338,
      "Ġarri": 2339,
      "ration": 2340,
      "ĠIV": 2341,
      "Ġears": 2342,
      "ĠGl": 2343,
      "ATR": 2344,
      "ned": 2345,
      "Ġwise": 2346,
      "Ġda": 2347,
      "ELLO": 2348,
      "ublic": 2349,
      "Ġdam": 2350,
      "oman": 2351,
      "Ġweak": 2352,
      "ĠHels": 2353,
      "Ġexpl": 2354,
      "wel": 2355,
      "Ġvillain": 2356,
      "ĠWhale": 2357,
      "ĠHelsing": 2358,
      "Ġcrow": 2359,
      "ĠHad": 2360,
      "Ġstud": 2361,
      "ETH": 2362,
      "now": 2363,
      "Ġ2": 2364,
      "rest": 2365,
      "Ġmove": 2366,
      "ingley": 2367,
      "ented": 2368,
      "Ġstep": 2369,
      "alt": 2370,
      "ĠMore": 2371,
      "inks": 2372,
      "Ġseveral": 2373,
      "Ġdust": 2374,
      "Ġph": 2375,
      "ĠLORD": 2376,
      "ager": 2377,
      "Ġtrain": 2378,
      "ges": 2379,
      "Ġsy": 2380,
      "Ġfoul": 2381,
      "Ġthick": 2382,
      "Ġreck": 2383,
      "ĠBingley": 2384,
      "Ġswear": 2385,
      "EY": 2386,
      "GAR": 2387,
      "Ġpardon": 2388,
      "ety": 2389,
      "ract": 2390,
      "Ġinterest": 2391,
      "ĠGeorge": 2392,
      "ĠFoundation": 2393,
      "equ": 2394,
      "vell": 2395,
      "ĠAL": 2396,
      "Ġgentlemen": 2397,
      "Ġje": 2398,
      "cian": 2399,
      "Ġtwenty": 2400,
      "Ġclear": 2401,
      "ead": 2402,
      "ray": 2403,
      "set": 2404,
      "ĠEm": 2405,
      "Ġconst": 2406,
      "enge": 2407,
      "ĠCLOWN": 2408,
      "Ġreal": 2409,
      "Ġmarried": 2410,
      "Ġwanted": 2411,
      "Ġdog": 2412,
      "Ġenc": 2413,
      "Ġsurpr": 2414,
      "Ġriver": 2415,
      "tered": 2416,
      "Ġdistrib": 2417,
      "Ġmusic": 2418,
      "aff": 2419,
      "itude": 2420,
      "Ġcorn": 2421,
      "Ġgall": 2422,
      "you": 2423,
      "Ġtried": 2424,
      "unk": 2425,
      "ĠPRINCE": 2426,
      "Yes": 2427,
      "iar": 2428,
      "Ġce": 2429,
      "arb": 2430,
      "Ġroad": 2431,
      "ission": 2432,
      "Ġsqu": 2433,
      "Ġpale": 2434,
      "Ġele": 2435,
      "ĠHath": 2436,
      "Ġloved": 2437,
      "Ġharm": 2438,
      "rupt": 2439,
      "Ġbattle": 2440,
      "Ġfet": 2441,
      "Ġbeat": 2442,
      "Ġring": 2443,
      "ĠDefarge": 2444,
      "),": 2445,
      "Ġhop": 2446,
      "ainst": 2447,
      "ection": 2448,
      "ledge": 2449,
      "ĠQu": 2450,
      "fic": 2451,
      "Ġble": 2452,
      "Ġthrow": 2453,
      "ĠSH": 2454,
      "ĠOh": 2455,
      "Ġships": 2456,
      "Ġmoon": 2457,
      "OP": 2458,
      "hood": 2459,
      "ased": 2460,
      "ĠHa": 2461,
      "ept": 2462,
      "Ġcouldn": 2463,
      "Ġmaking": 2464,
      "Ġfit": 2465,
      "Ġtop": 2466,
      "iding": 2467,
      "Ġmere": 2468,
      "cked": 2469,
      "Ġgolden": 2470,
      "Ġwoe": 2471,
      "Ġled": 2472,
      "ancy": 2473,
      "ĠMAC": 2474,
      "ĠGR": 2475,
      "Ġwrite": 2476,
      "Ġminute": 2477,
      "ffect": 2478,
      "ses": 2479,
      "âĢĶâĢĿ": 2480,
      "Ġlaugh": 2481,
      "du": 2482,
      "âĢľ": 2483,
      "Ġstop": 2484,
      "Ġtru": 2485,
      "arent": 2486,
      "Ġbelow": 2487,
      "Ġsilence": 2488,
      "Ġsens": 2489,
      "Ġduty": 2490,
      "Ġpol": 2491,
      "Ġworse": 2492,
      "ploy": 2493,
      "Ġcircum": 2494,
      "Ġwide": 2495,
      "Ġmed": 2496,
      "Ġwear": 2497,
      "Ġsuper": 2498,
      "ĠOTH": 2499,
      "Ġbloody": 2500,
      "ific": 2501,
      "Ġhearts": 2502,
      "Ġheads": 2503,
      "cester": 2504,
      "Ġreport": 2505,
      "Ġhuman": 2506,
      "ĠGregor": 2507,
      "Ġdreadful": 2508,
      "ĠDoctor": 2509,
      "Ġvisit": 2510,
      "Ġtender": 2511,
      "EUS": 2512,
      "Ġdied": 2513,
      "ĠSay": 2514,
      "Ġstands": 2515,
      "ĠPrince": 2516,
      "lo": 2517,
      "pin": 2518,
      "rs": 2519,
      "ĠHark": 2520,
      "Ġnecess": 2521,
      "ĠGreece": 2522,
      "UTUS": 2523,
      "Ġfing": 2524,
      "Ġloud": 2525,
      "ĠWar": 2526,
      "ERV": 2527,
      "Ġspeed": 2528,
      "Ġsuppose": 2529,
      "Ġbeaut": 2530,
      "Ġdinner": 2531,
      "ĠBRUTUS": 2532,
      "Ġidea": 2533,
      "Ġsin": 2534,
      "ĠSp": 2535,
      "medi": 2536,
      "rous": 2537,
      "Ġoath": 2538,
      "Ġsucc": 2539,
      "Ġsafe": 2540,
      "then": 2541,
      "nown": 2542,
      "Ġtro": 2543,
      "Ġable": 2544,
      "Ġfig": 2545,
      "ĠAfter": 2546,
      "ĠGrace": 2547,
      "Ġenter": 2548,
      "Ġcarry": 2549,
      "vol": 2550,
      "ĠSIR": 2551,
      "ters": 2552,
      "ichard": 2553,
      "Ġneigh": 2554,
      "Ġoffic": 2555,
      "ainted": 2556,
      "ĠMadam": 2557,
      "Ġhell": 2558,
      "ĠTake": 2559,
      "Ġemploy": 2560,
      "AGO": 2561,
      "Ġbig": 2562,
      "Ġwhis": 2563,
      "IMON": 2564,
      "Ġdrew": 2565,
      "irth": 2566,
      "Ġforget": 2567,
      "ĠFare": 2568,
      "Ġleg": 2569,
      "Ġimag": 2570,
      "Ġrace": 2571,
      "ized": 2572,
      "ĠCla": 2573,
      "Ġvar": 2574,
      "Ġconqu": 2575,
      "osom": 2576,
      "Ġperfect": 2577,
      "Ġmonth": 2578,
      "DY": 2579,
      "âĢĺ": 2580,
      "utes": 2581,
      "Ġrepe": 2582,
      "ĠCon": 2583,
      "ĠRichard": 2584,
      "Ġreturned": 2585,
      "Ġhardly": 2586,
      "ĠROSAL": 2587,
      "ĠOTHELLO": 2588,
      "oint": 2589,
      "Ġlam": 2590,
      "leep": 2591,
      "Ġprin": 2592,
      "eks": 2593,
      "Ġhide": 2594,
      "osition": 2595,
      "ĠSERV": 2596,
      "orses": 2597,
      "ĠAntony": 2598,
      "ience": 2599,
      "ts": 2600,
      "Ġauth": 2601,
      "ination": 2602,
      "Ġbosom": 2603,
      "ĠIAGO": 2604,
      "ĠMe": 2605,
      "Ġwouldn": 2606,
      "Ġexcell": 2607,
      "lemachus": 2608,
      "Ġservant": 2609,
      "Ġbehold": 2610,
      "Ġpossible": 2611,
      "ope": 2612,
      "wise": 2613,
      "ative": 2614,
      "Ġeffect": 2615,
      "ourn": 2616,
      "Ġswift": 2617,
      "ĠTrojan": 2618,
      "Ġgar": 2619,
      "ĠHel": 2620,
      "ĠJon": 2621,
      "Ġdisg": 2622,
      "ize": 2623,
      "Ġconfess": 2624,
      "Ġoccasion": 2625,
      "gar": 2626,
      "Ġwilt": 2627,
      "ises": 2628,
      "Ġyes": 2629,
      "ilst": 2630,
      "peak": 2631,
      "ended": 2632,
      "ĠCaptain": 2633,
      "ob": 2634,
      "Ġav": 2635,
      "Ġseat": 2636,
      "Ġfront": 2637,
      "Ġvirtue": 2638,
      "ISTRESS": 2639,
      "ĠMISTRESS": 2640,
      "Ġdoing": 2641,
      "Ġfact": 2642,
      "Ġfoe": 2643,
      "Ġcomple": 2644,
      "AD": 2645,
      "ians": 2646,
      "Ġuns": 2647,
      "ected": 2648,
      "Ġcheer": 2649,
      "Ġopened": 2650,
      "Ġdart": 2651,
      "Ġstory": 2652,
      "though": 2653,
      "Ġpride": 2654,
      "icked": 2655,
      "Ġfollowed": 2656,
      "atsby": 2657,
      "Ġwalls": 2658,
      "Ġprisoner": 2659,
      "ĠLEON": 2660,
      "Ġladies": 2661,
      "Why": 2662,
      "king": 2663,
      "arry": 2664,
      "ĠCASS": 2665,
      "ĠFR": 2666,
      "Ġblow": 2667,
      "Ġevening": 2668,
      "Ġspirits": 2669,
      "Ġjudge": 2670,
      "omed": 2671,
      "Ġur": 2672,
      "unes": 2673,
      "Ġeasy": 2674,
      "aven": 2675,
      "uct": 2676,
      "vey": 2677,
      "Ġsport": 2678,
      "Ġwarm": 2679,
      "Ġmoved": 2680,
      "Ġwait": 2681,
      "Ġpraise": 2682,
      "Ġforgot": 2683,
      "ithe": 2684,
      "ening": 2685,
      "Ġpriv": 2686,
      "Ġviol": 2687,
      "bit": 2688,
      "joy": 2689,
      "Ġtaking": 2690,
      "oucester": 2691,
      "Ġpublic": 2692,
      "Ġexcept": 2693,
      "Ġcow": 2694,
      "room": 2695,
      "ĠGENT": 2696,
      "Ġproceed": 2697,
      "ĠStubb": 2698,
      "Ġworthy": 2699,
      "Ġsuitors": 2700,
      "Ġsuddenly": 2701,
      "ĠParis": 2702,
      "ĠGENTLE": 2703,
      "che": 2704,
      "ped": 2705,
      "Ġband": 2706,
      "Ġhorses": 2707,
      "Ġport": 2708,
      "rage": 2709,
      "ĠGatsby": 2710,
      "Ġimmedi": 2711,
      "ĠANTONY": 2712,
      "br": 2713,
      "Ġign": 2714,
      "ĠInd": 2715,
      "cient": 2716,
      "Ġbecame": 2717,
      "ĠGloucester": 2718,
      "ted": 2719,
      "Ġer": 2720,
      "Ġty": 2721,
      "Ġhill": 2722,
      "Ġnote": 2723,
      "Ġisland": 2724,
      "ĠGLO": 2725,
      "ardin": 2726,
      "Ġthyself": 2727,
      "Ġstranger": 2728,
      "Ġglory": 2729,
      "UCESTER": 2730,
      "Ġsky": 2731,
      "ĠGLOUCESTER": 2732,
      "ient": 2733,
      "oned": 2734,
      "Ġthunder": 2735,
      "Ġmem": 2736,
      "ified": 2737,
      "Ġspeech": 2738,
      "ecil": 2739,
      "Ġpaper": 2740,
      "Ġenemy": 2741,
      "Ġought": 2742,
      "omp": 2743,
      "ĠCass": 2744,
      "ĠColl": 2745,
      "Ġblind": 2746,
      "Ġcharac": 2747,
      "Ġmarriage": 2748,
      "Ġbroke": 2749,
      "Ġbroken": 2750,
      "Ġdifferent": 2751,
      "wick": 2752,
      "Ġfresh": 2753,
      "itor": 2754,
      "ĠMost": 2755,
      "iling": 2756,
      "Ġloves": 2757,
      "ument": 2758,
      "ORT": 2759,
      "Ġimport": 2760,
      "what": 2761,
      "Ġmess": 2762,
      "Ġfish": 2763,
      "Ġpaid": 2764,
      "Ġtrad": 2765,
      "ĠTelemachus": 2766,
      "equeg": 2767,
      "oot": 2768,
      "aged": 2769,
      "ĠWere": 2770,
      "eech": 2771,
      "oc": 2772,
      "Ġopin": 2773,
      "Ġcrew": 2774,
      "Ġaffection": 2775,
      "Ġparts": 2776,
      "ETR": 2777,
      "lemn": 2778,
      "Ġquickly": 2779,
      "ĠAd": 2780,
      "ality": 2781,
      "ĠPl": 2782,
      "ustration": 2783,
      "Ġspread": 2784,
      "Ġgives": 2785,
      "ĠGreeks": 2786,
      "erable": 2787,
      "ĠMan": 2788,
      "iously": 2789,
      "ea": 2790,
      "ites": 2791,
      "raph": 2792,
      "ĠCOR": 2793,
      "Ġfeeling": 2794,
      "ĠPray": 2795,
      "Ġscarce": 2796,
      "Ġstorm": 2797,
      "Ġsac": 2798,
      "othing": 2799,
      "Ġfollowing": 2800,
      "Ġsilver": 2801,
      "Ġadded": 2802,
      "Ġregard": 2803,
      "Ġrevenge": 2804,
      "Ġcircumst": 2805,
      "Ġfif": 2806,
      "Ġfun": 2807,
      "raid": 2808,
      "Ġsolemn": 2809,
      "Ġholy": 2810,
      "ATH": 2811,
      "Ġpromise": 2812,
      "esh": 2813,
      "Ġpit": 2814,
      "ĠAj": 2815,
      "Ġvol": 2816,
      "ops": 2817,
      "itten": 2818,
      "Ġharpo": 2819,
      "Ġkilled": 2820,
      "Ġgreen": 2821,
      "How": 2822,
      "how": 2823,
      "enger": 2824,
      "ĠTy": 2825,
      "ĠAnother": 2826,
      "Ġletters": 2827,
      "AGE": 2828,
      "DER": 2829,
      "IZ": 2830,
      "dess": 2831,
      "host": 2832,
      "ked": 2833,
      "Ġver": 2834,
      "Ġbri": 2835,
      "Ġfre": 2836,
      "ĠWAR": 2837,
      "ĠLa": 2838,
      "ĠLong": 2839,
      "Ġdescend": 2840,
      "angu": 2841,
      "ĠWarwick": 2842,
      "Ġid": 2843,
      "hal": 2844,
      "idence": 2845,
      "ĠOR": 2846,
      "Ġrise": 2847,
      "Ġfeast": 2848,
      "ANIO": 2849,
      "Ġcontent": 2850,
      "Ġwhales": 2851,
      "ĠGENTLEMAN": 2852,
      "Ill": 2853,
      "val": 2854,
      "zen": 2855,
      "nds": 2856,
      "Ġnumber": 2857,
      "Ġmeant": 2858,
      "ĠCecil": 2859,
      "Ġneck": 2860,
      "Ġscene": 2861,
      "Ġentreat": 2862,
      "Ġdemand": 2863,
      ".]": 2864,
      "LAND": 2865,
      "Ġpowers": 2866,
      "Ġthri": 2867,
      "Ġconce": 2868,
      "ĠJUL": 2869,
      "Ġchurch": 2870,
      "Ġtremb": 2871,
      "ais": 2872,
      "Ġobey": 2873,
      "Ġgetting": 2874,
      "Ġcaptain": 2875,
      "Ġcopyright": 2876,
      "Ġstopped": 2877,
      "Ġbird": 2878,
      "ĠAh": 2879,
      "emn": 2880,
      "Ġseeing": 2881,
      "Ġdeterm": 2882,
      "Ġiron": 2883,
      "Ġagreement": 2884,
      "Ġcrowd": 2885,
      "OT": 2886,
      "go": 2887,
      "Ġflies": 2888,
      "Ġstir": 2889,
      "ĠCLE": 2890,
      "Ġfee": 2891,
      "Ġgracious": 2892,
      "Ġcoll": 2893,
      "Ġsilent": 2894,
      "Illustration": 2895,
      "Ġsorry": 2896,
      "Ġevil": 2897,
      "Ġdeg": 2898,
      "Ġdeck": 2899,
      "Ġagree": 2900,
      "Ġremark": 2901,
      "Ġhaste": 2902,
      "Ġsharp": 2903,
      "Ġsuccess": 2904,
      "Ġsacred": 2905,
      "YR": 2906,
      "gy": 2907,
      "Ġfury": 2908,
      "orious": 2909,
      "Ġshut": 2910,
      "aste": 2911,
      "Ġknowledge": 2912,
      "Ġcreature": 2913,
      "Ġangry": 2914,
      "pic": 2915,
      "yond": 2916,
      "Ġsigh": 2917,
      "ram": 2918,
      "Ġlift": 2919,
      "Ġdeal": 2920,
      "arden": 2921,
      "Ġenjoy": 2922,
      "ĠArch": 2923,
      "ners": 2924,
      "Ġknight": 2925,
      "Ġoffer": 2926,
      "Ġraised": 2927,
      "ĠQueequeg": 2928,
      "Ġmurder": 2929,
      "ĠâĢľâĢĺ": 2930,
      "ored": 2931,
      "ppy": 2932,
      "cience": 2933,
      "ĠAjax": 2934,
      "ah": 2935,
      "ye": 2936,
      "Ġcat": 2937,
      "ĠAp": 2938,
      "Ġdeed": 2939,
      "Ġaccept": 2940,
      "Ġdepart": 2941,
      "Ġaid": 2942,
      "ature": 2943,
      "Ġstern": 2944,
      "Ġsovere": 2945,
      "ĠPAGE": 2946,
      "Ġcompan": 2947,
      "Ġwarri": 2948,
      "Ġserve": 2949,
      "SP": 2950,
      "light": 2951,
      "Ġwid": 2952,
      "Ġpict": 2953,
      "ĠAb": 2954,
      "ĠWest": 2955,
      "Ġseas": 2956,
      "ĠPAR": 2957,
      "Ġconvers": 2958,
      "Ġunk": 2959,
      "Ġclot": 2960,
      "Ġfright": 2961,
      "Ġslight": 2962,
      "Ġstanding": 2963,
      "Ġstream": 2964,
      "ĠAlas": 2965,
      "Ġmercy": 2966,
      "LY": 2967,
      "That": 2968,
      "Ġhung": 2969,
      "Ġlean": 2970,
      "Ġnatural": 2971,
      "Ġgrie": 2972,
      "Ġvaliant": 2973,
      "Ġdivine": 2974,
      "Ġbitter": 2975,
      "Ġpiece": 2976,
      "ĠEdward": 2977,
      "Ġtent": 2978,
      "ander": 2979,
      "Ġcomb": 2980,
      "Ġalive": 2981,
      "IND": 2982,
      "ĠAtt": 2983,
      "Ġjoin": 2984,
      "gue": 2985,
      "ho": 2986,
      "Ġcalm": 2987,
      "Ġhappened": 2988,
      "Ġsuffer": 2989,
      ",âĢĻ": 2990,
      "EW": 2991,
      "cent": 2992,
      "Ġgift": 2993,
      "roke": 2994,
      "Ġsol": 2995,
      "Ġglass": 2996,
      "Ġpresently": 2997,
      "Ġstreet": 2998,
      "Ġearly": 2999,
      "rat": 3000,
      "Ġbeha": 3001,
      "herd": 3002,
      "Ġshook": 3003,
      "aked": 3004,
      "USE": 3005,
      "ORK": 3006,
      "Ġpassion": 3007,
      "Ġhappiness": 3008,
      "Ġbeseech": 3009,
      "Ġauthor": 3010,
      "Ġtakes": 3011,
      "Ġmut": 3012,
      "antage": 3013,
      "ĠHeaven": 3014,
      "Ġgreater": 3015,
      "Ġtemp": 3016,
      "ĠLADY": 3017,
      "ĠSince": 3018,
      "ĠPat": 3019,
      "Ġoffice": 3020,
      "ICE": 3021,
      "Ġacross": 3022,
      "Ġformer": 3023,
      "Ġwitness": 3024,
      "UFF": 3025,
      "inct": 3026,
      "Ġbase": 3027,
      "Ġfame": 3028,
      "Ġnig": 3029,
      "iment": 3030,
      "Ġnob": 3031,
      "Ġago": 3032,
      "arest": 3033,
      "Ġgoddess": 3034,
      "welve": 3035,
      "son": 3036,
      "Ġtor": 3037,
      "Ġfaint": 3038,
      "Ġthro": 3039,
      "ĠTw": 3040,
      "Ġshield": 3041,
      "Ġexam": 3042,
      "INA": 3043,
      "Ġwarrant": 3044,
      "Ġcarried": 3045,
      "Ġsou": 3046,
      "rel": 3047,
      "semb": 3048,
      "Ġeff": 3049,
      "ĠSpeak": 3050,
      "ously": 3051,
      "uel": 3052,
      "Ġgrant": 3053,
      "Ġdarkness": 3054,
      "ashion": 3055,
      "Ġpract": 3056,
      "lot": 3057,
      "mber": 3058,
      "rist": 3059,
      "Ġwoo": 3060,
      "itions": 3061,
      "utus": 3062,
      "ĠHEL": 3063,
      "ĠMEN": 3064,
      "Ġkings": 3065,
      "Ġsmile": 3066,
      "Ġjustice": 3067,
      "Ġcertainly": 3068,
      "Ġbeneath": 3069,
      "Ġopinion": 3070,
      "Ġ3": 3071,
      "ina": 3072,
      "Ġmatch": 3073,
      "Ġpen": 3074,
      "cean": 3075,
      "ĠMESS": 3076,
      "ested": 3077,
      "ume": 3078,
      "Ġspr": 3079,
      "Ġways": 3080,
      "Ġscorn": 3081,
      "They": 3082,
      "Ġsingle": 3083,
      "Ġfierce": 3084,
      "Ã¦": 3085,
      "orth": 3086,
      "Ġpull": 3087,
      "anch": 3088,
      "vern": 3089,
      "Ġunf": 3090,
      "Ġperm": 3091,
      "ĠSwe": 3092,
      "Ġreach": 3093,
      "Ġstone": 3094,
      "Ġafraid": 3095,
      "Ġthinking": 3096,
      "erva": 3097,
      "Ġpresence": 3098,
      "ROM": 3099,
      "Ġlabour": 3100,
      "Ġfetch": 3101,
      "Ġbeautiful": 3102,
      "Ġcharacter": 3103,
      "Ġfie": 3104,
      "ĠNever": 3105,
      "Ġunw": 3106,
      "ĠBee": 3107,
      "Ġcourage": 3108,
      "Ġdestro": 3109,
      "Ġexcellent": 3110,
      "fess": 3111,
      "Ġaction": 3112,
      "Ġmiss": 3113,
      "Ġpat": 3114,
      "Ġpalace": 3115,
      "ĠTIMON": 3116,
      "Ġdeli": 3117,
      "ĠFirst": 3118,
      "ĠDes": 3119,
      "Ġsav": 3120,
      "ounds": 3121,
      "Ġflesh": 3122,
      "ocks": 3123,
      "ĠMina": 3124,
      "ithee": 3125,
      "Book": 3126,
      "iam": 3127,
      "ench": 3128,
      "Ġhealth": 3129,
      "Ġiss": 3130,
      "ĠMist": 3131,
      "Ġshout": 3132,
      "Ġord": 3133,
      "Ġblue": 3134,
      "Ġlaws": 3135,
      "Ġterrible": 3136,
      "ĠMinerva": 3137,
      "ming": 3138,
      "Ġmal": 3139,
      "Ġduke": 3140,
      "Ġinqu": 3141,
      "eter": 3142,
      "ĠBart": 3143,
      "ember": 3144,
      "aunt": 3145,
      "Ġrock": 3146,
      "Ġstrike": 3147,
      "ĠServ": 3148,
      "Ġasleep": 3149,
      "ĠOut": 3150,
      "ĠBeebe": 3151,
      "?âĢĶ": 3152,
      "BETH": 3153,
      "inous": 3154,
      "Ġwond": 3155,
      "Ġtomorrow": 3156,
      "Ġhunt": 3157,
      "Ġearn": 3158,
      "Ġvoy": 3159,
      "Ġrus": 3160,
      "ĠYORK": 3161,
      "ĠStates": 3162,
      "Ġpersu": 3163,
      "ACH": 3164,
      "Ġsnow": 3165,
      "ĠMACBETH": 3166,
      "TES": 3167,
      "Ġbore": 3168,
      "ĠHigh": 3169,
      "Ġves": 3170,
      "Ġprob": 3171,
      "Ġboard": 3172,
      "Ġappeared": 3173,
      "Ġinclud": 3174,
      "ĠHelen": 3175,
      "ris": 3176,
      "itation": 3177,
      "ĠHomer": 3178,
      "INIUS": 3179,
      "Ġaffect": 3180,
      "ĠGrecian": 3181,
      "Ġpatience": 3182,
      "ATRA": 3183,
      "OPATRA": 3184,
      "ĠCLEOPATRA": 3185,
      "ĠBartlet": 3186,
      "BY": 3187,
      "GER": 3188,
      "We": 3189,
      "Ġghost": 3190,
      "imon": 3191,
      "aded": 3192,
      "Ġanx": 3193,
      "umph": 3194,
      "Ġourselves": 3195,
      "olk": 3196,
      "Ġrain": 3197,
      "Ġentire": 3198,
      "Ġminutes": 3199,
      "IANA": 3200,
      "ĠBrutus": 3201,
      "ĠBartlett": 3202,
      "cing": 3203,
      "thur": 3204,
      "ference": 3205,
      "Ġspring": 3206,
      "Ġunha": 3207,
      "Ġcompl": 3208,
      "Ġbrain": 3209,
      "ĠANTI": 3210,
      "ourable": 3211,
      "Ġsovereign": 3212,
      "UD": 3213,
      "Ġast": 3214,
      "Ġmeth": 3215,
      "Ġbirth": 3216,
      "anced": 3217,
      "Ġthrew": 3218,
      "ĠSYR": 3219,
      "iff": 3220,
      "isted": 3221,
      "ĠAND": 3222,
      "ACUSE": 3223,
      "ĠMARGAR": 3224,
      "UNT": 3225,
      "ĠFarewell": 3226,
      "ĠSYRACUSE": 3227,
      "phe": 3228,
      "ws": 3229,
      "Ġbeyond": 3230,
      "Ġnotice": 3231,
      "ests": 3232,
      "Ġloss": 3233,
      "ĠJust": 3234,
      "Ġclo": 3235,
      "OLK": 3236,
      "ILIA": 3237,
      "Ġtruly": 3238,
      "Ġdestroy": 3239,
      "bed": 3240,
      "fast": 3241,
      "Ġtwelve": 3242,
      "Ġmag": 3243,
      "Ġmention": 3244,
      "uted": 3245,
      "ĠGreat": 3246,
      "Ġvan": 3247,
      "Ġvenge": 3248,
      "Ġexact": 3249,
      "Ġaccord": 3250,
      "ĠUnited": 3251,
      "Ġwretched": 3252,
      "ĠROSALIND": 3253,
      "Ġhid": 3254,
      "ĠMake": 3255,
      "ĠCA": 3256,
      "ĠCIT": 3257,
      "Ġnoise": 3258,
      "ELIA": 3259,
      "Ġdistance": 3260,
      "Ġvictor": 3261,
      "Ġdouble": 3262,
      "Ġoffend": 3263,
      "Ġstret": 3264,
      "ĠDr": 3265,
      "Ġspear": 3266,
      "ickham": 3267,
      "ĠArthur": 3268,
      "Ġfeelings": 3269,
      "Ġapproach": 3270,
      "----------------": 3271,
      "Ġfixed": 3272,
      "ĠMARGARET": 3273,
      "Ġsch": 3274,
      "onight": 3275,
      "Ġdish": 3276,
      "Ġoft": 3277,
      "ales": 3278,
      "ĠCha": 3279,
      "Ġdeb": 3280,
      "Ġblame": 3281,
      "Ġaccess": 3282,
      "Ġtalking": 3283,
      "Ġdiffic": 3284,
      "arbuck": 3285,
      "Ġclothes": 3286,
      "Ġclaim": 3287,
      "Ġinj": 3288,
      "Ġthird": 3289,
      "urse": 3290,
      "Ġlived": 3291,
      "cial": 3292,
      "Ġsupper": 3293,
      "Ġsummer": 3294,
      "ĠMistress": 3295,
      "hold": 3296,
      "ny": 3297,
      "Ġta": 3298,
      "Ġga": 3299,
      "Ġreve": 3300,
      "ĠPri": 3301,
      "Ġancient": 3302,
      "Ġneeds": 3303,
      "ĠRoom": 3304,
      "Ġune": 3305,
      "ĠKATH": 3306,
      "atherine": 3307,
      "Ġwritten": 3308,
      "Ġplaced": 3309,
      "Ġbroad": 3310,
      "Ġmerry": 3311,
      "ĠMarry": 3312,
      "formation": 3313,
      "IZEN": 3314,
      "ĠCITIZEN": 3315,
      "TA": 3316,
      "chan": 3317,
      "Ġcre": 3318,
      "ĠeBook": 3319,
      "ically": 3320,
      "ieur": 3321,
      "Ġperform": 3322,
      "Ġteeth": 3323,
      "ĠCollins": 3324,
      "Ġsouls": 3325,
      "OG": 3326,
      "Ġcatch": 3327,
      "Ġgarden": 3328,
      "ĠWickham": 3329,
      "roclus": 3330,
      "ĠFe": 3331,
      "Ġneg": 3332,
      "fered": 3333,
      "Ġalar": 3334,
      "ENGER": 3335,
      "arer": 3336,
      "Ġdism": 3337,
      "Ġchair": 3338,
      "Ġcontr": 3339,
      "Ġattention": 3340,
      "Ġheavens": 3341,
      "Ġwalked": 3342,
      "Ġclouds": 3343,
      "ĠMESSENGER": 3344,
      "ding": 3345,
      "rem": 3346,
      "ĠDON": 3347,
      "ĠRos": 3348,
      "Ġpleased": 3349,
      "ĠChrist": 3350,
      "ternal": 3351,
      "Ġequal": 3352,
      "Ġignor": 3353,
      "VIA": 3354,
      "rate": 3355,
      "zy": 3356,
      "Ġcost": 3357,
      "Ġla": 3358,
      "ify": 3359,
      "Ġexec": 3360,
      "Ġspeaking": 3361,
      "Ġfields": 3362,
      "Ġcounsel": 3363,
      "Ġsoldiers": 3364,
      "ĠSERVANT": 3365,
      "pit": 3366,
      "Ġfashion": 3367,
      "Ġbend": 3368,
      "amed": 3369,
      "Ġliber": 3370,
      "ĠJO": 3371,
      "Ġattempt": 3372,
      "Ġmonster": 3373,
      "hys": 3374,
      "ping": 3375,
      "Ġsli": 3376,
      "rer": 3377,
      "Ġfancy": 3378,
      "Ġcab": 3379,
      "Ġheap": 3380,
      "ĠTit": 3381,
      "Ġgates": 3382,
      "ays": 3383,
      "Ġfarew": 3384,
      "ERS": 3385,
      "ĠStand": 3386,
      "ĠStarbuck": 3387,
      "UCK": 3388,
      "ĠLEAR": 3389,
      "Ġleaves": 3390,
      "Ġshadow": 3391,
      "Ġneighbour": 3392,
      "ĠAttend": 3393,
      "ĠPatroclus": 3394,
      "Ġfarewell": 3395,
      "mon": 3396,
      "Ġsitting": 3397,
      "Ġori": 3398,
      "Ġmock": 3399,
      "Ġfirm": 3400,
      "ĠTR": 3401,
      "Ġgate": 3402,
      "astle": 3403,
      "ĠThr": 3404,
      "Ġexper": 3405,
      "Ġplan": 3406,
      "ELL": 3407,
      "Ġstarted": 3408,
      "Ġsoldier": 3409,
      "ĠShould": 3410,
      "Ġcolour": 3411,
      "WICK": 3412,
      "fer": 3413,
      "Ġcred": 3414,
      "Ġcamp": 3415,
      "Ġlangu": 3416,
      "ĠAway": 3417,
      "ette": 3418,
      "ĠPage": 3419,
      "nto": 3420,
      "lace": 3421,
      "ANUS": 3422,
      "Ġentered": 3423,
      "IRD": 3424,
      "Ġdrawn": 3425,
      "Ġskies": 3426,
      "Ġmiddle": 3427,
      "fessor": 3428,
      "jo": 3429,
      "Ġtonight": 3430,
      "Ġmass": 3431,
      "Ġcent": 3432,
      "eding": 3433,
      "Ġlust": 3434,
      "ĠAthen": 3435,
      "Ġreceive": 3436,
      "ĠCr": 3437,
      "Ġrising": 3438,
      "ĠTHIRD": 3439,
      "lotte": 3440,
      "ton": 3441,
      "Ġwed": 3442,
      "Ġmast": 3443,
      "Ġlion": 3444,
      "ourish": 3445,
      "ĠPAND": 3446,
      "ĠDon": 3447,
      "que": 3448,
      "Ġcanst": 3449,
      "Ġunless": 3450,
      "Ġpros": 3451,
      "Ġafterwards": 3452,
      "Ġturning": 3453,
      "Ġbeast": 3454,
      "sequ": 3455,
      "ĠBes": 3456,
      "aining": 3457,
      "ĠFORD": 3458,
      "Ġdogs": 3459,
      "ĠVen": 3460,
      "Ġcalls": 3461,
      "Ġtrees": 3462,
      "Ġslaught": 3463,
      "ĠWARWICK": 3464,
      "aisy": 3465,
      "If": 3466,
      "WARD": 3467,
      "bid": 3468,
      "Ġbott": 3469,
      "Ġfro": 3470,
      "Ġduring": 3471,
      "Ġweight": 3472,
      "ĠCO": 3473,
      "ellow": 3474,
      "erson": 3475,
      "Ġchoose": 3476,
      "Ġbegun": 3477,
      "Ġslave": 3478,
      "Ġmotion": 3479,
      "Ġtail": 3480,
      "Ġcal": 3481,
      "Ġcaught": 3482,
      "Ġinno": 3483,
      "Ġthreat": 3484,
      "ĠPER": 3485,
      "Ġrid": 3486,
      "Ġarg": 3487,
      "Ġflight": 3488,
      "Ġparty": 3489,
      "Ġknees": 3490,
      "Ġcapt": 3491,
      "Ġprize": 3492,
      "ancing": 3493,
      "Ġdespair": 3494,
      "ĠJonathan": 3495,
      "Ġconversation": 3496,
      "Ġtall": 3497,
      "Ġfood": 3498,
      "Ġfurn": 3499,
      "Ġlance": 3500,
      "Ġwhilst": 3501,
      "estor": 3502,
      "ĠProfessor": 3503,
      "Ġturns": 3504,
      "Ġpassage": 3505,
      "clock": 3506,
      "Ġparag": 3507,
      "HN": 3508,
      "HIL": 3509,
      "Ġbent": 3510,
      "Ġbones": 3511,
      "ences": 3512,
      "ieve": 3513,
      "Ġchari": 3514,
      "OLUS": 3515,
      "Ġbox": 3516,
      "iterary": 3517,
      "Ġimmortal": 3518,
      "Tw": 3519,
      "cil": 3520,
      "ĠST": 3521,
      "Ġjour": 3522,
      "Ġthanks": 3523,
      "onsieur": 3524,
      "PHOLUS": 3525,
      "cape": 3526,
      "ĠANTIPHOLUS": 3527,
      "DEM": 3528,
      "Ġtale": 3529,
      "erc": 3530,
      "Ġdue": 3531,
      "Ġpress": 3532,
      "Ġnar": 3533,
      "ric": 3534,
      "ĠMess": 3535,
      "Ġfled": 3536,
      "Ġrap": 3537,
      "Ġkey": 3538,
      "Ġgrand": 3539,
      "Ġsteel": 3540,
      "iest": 3541,
      "sp": 3542,
      "Ġdim": 3543,
      "ĠMust": 3544,
      "ĠFort": 3545,
      "Ġflood": 3546,
      "Ġremained": 3547,
      "Ġentertain": 3548,
      "Ġempt": 3549,
      "Ġcruel": 3550,
      "Ġwaves": 3551,
      "Ġfigure": 3552,
      "dia": 3553,
      "Ġsong": 3554,
      "Ġciv": 3555,
      "Ġeight": 3556,
      "ĠâĢľ_": 3557,
      "ĠEM": 3558,
      "quod": 3559,
      "Ġfaces": 3560,
      "Ġplaces": 3561,
      "There": 3562,
      "Ġmurde": 3563,
      "SE": 3564,
      "St": 3565,
      "She": 3566,
      "long": 3567,
      "sing": 3568,
      "tled": 3569,
      "ugg": 3570,
      "Ġtit": 3571,
      "Ġow": 3572,
      "Ġpun": 3573,
      "aming": 3574,
      "ively": 3575,
      "Ġfail": 3576,
      "Ġimper": 3577,
      "ĠVAL": 3578,
      "Ġdesert": 3579,
      "Ġobt": 3580,
      "Ġrunning": 3581,
      "Ġbeside": 3582,
      "ĠPequod": 3583,
      "cript": 3584,
      "Ġmountain": 3585,
      "ĠLydia": 3586,
      "Ġcomplete": 3587,
      "Ġvoyage": 3588,
      "uge": 3589,
      "Ġ4": 3590,
      "Ġwars": 3591,
      "Ġbod": 3592,
      "Ġbond": 3593,
      "Ġstar": 3594,
      "ĠPy": 3595,
      "ĠDaisy": 3596,
      "ĠEvery": 3597,
      "Ġvast": 3598,
      "Ġfears": 3599,
      "._--": 3600,
      "cially": 3601,
      "rows": 3602,
      "Ġwaters": 3603,
      "Ġstreets": 3604,
      "Ġnearly": 3605,
      "ĠCharlotte": 3606,
      "Ġsteps": 3607,
      "ĠJOHN": 3608,
      "eed": 3609,
      "inary": 3610,
      "Ġodd": 3611,
      "Ġmajesty": 3612,
      "Ġbab": 3613,
      "Ġcurious": 3614,
      "sey": 3615,
      "ĠLove": 3616,
      "Ġshake": 3617,
      "Ġshape": 3618,
      "Ġknave": 3619,
      "Ġwhatever": 3620,
      "Ġtroub": 3621,
      "Ġswell": 3622,
      "Ġimposs": 3623,
      "ixt": 3624,
      "Ġpatient": 3625,
      "Ġhopes": 3626,
      "Ġimmediately": 3627,
      "Ġjourney": 3628,
      "ĠEMILIA": 3629,
      "Ġfut": 3630,
      "Ġpap": 3631,
      "Ġeager": 3632,
      "Ġsheep": 3633,
      "Ġoutside": 3634,
      "Ġworst": 3635,
      "Ġtrump": 3636,
      "Ġfoolish": 3637,
      "....": 3638,
      "Ġreckon": 3639,
      "Ġcoward": 3640,
      "ĠHELEN": 3641,
      "00": 3642,
      "cause": 3643,
      "Ġwicked": 3644,
      "Ġder": 3645,
      "Ġbears": 3646,
      "ĠSil": 3647,
      "ĠMars": 3648,
      "ĠDES": 3649,
      "Ġnose": 3650,
      "Ġloving": 3651,
      "Ġintell": 3652,
      "ARUS": 3653,
      "ONA": 3654,
      "Ġbread": 3655,
      "Ġtrying": 3656,
      "Ġhurt": 3657,
      "ĠAgainst": 3658,
      "Ġsatisfied": 3659,
      "Ġeffort": 3660,
      ",--": 3661,
      "Ġtou": 3662,
      "itiz": 3663,
      "Ġdry": 3664,
      "Ġdress": 3665,
      "Ġphys": 3666,
      "ĠTIT": 3667,
      "Ġweap": 3668,
      "ĠCy": 3669,
      "Ġdeeds": 3670,
      "Ġmanners": 3671,
      "Ġamb": 3672,
      "Ġpoet": 3673,
      "ĠCharles": 3674,
      "ĠANTONIO": 3675,
      "Ġbeginning": 3676,
      "Ġearnest": 3677,
      "with": 3678,
      "Ġocean": 3679,
      "org": 3680,
      "Ġlower": 3681,
      "Ġpure": 3682,
      "omin": 3683,
      "Ġrough": 3684,
      "Ġlegs": 3685,
      "Ġapart": 3686,
      "Ġcarriage": 3687,
      "Ġlearned": 3688,
      "Ġslowly": 3689,
      "ĠTwo": 3690,
      "Ġorigin": 3691,
      "Ġparagraph": 3692,
      "In": 3693,
      "ald": 3694,
      "Ġwake": 3695,
      "chief": 3696,
      "Ġaside": 3697,
      "ools": 3698,
      "emark": 3699,
      "Ġusual": 3700,
      "Ġtraitor": 3701,
      "Ġpleasant": 3702,
      "Ġcontinued": 3703,
      "Ġburst": 3704,
      "ĠArchive": 3705,
      "EO": 3706,
      "TOR": 3707,
      "bury": 3708,
      "ipp": 3709,
      "Ġdance": 3710,
      "Ġhig": 3711,
      "Ġheat": 3712,
      "Ġwealth": 3713,
      "tering": 3714,
      "ĠLiterary": 3715,
      "ĠThose": 3716,
      "ague": 3717,
      "Ġpluck": 3718,
      "ruction": 3719,
      "ĠĠĠĠĠĠĠĠĠĠĠĠĠĠĠĠĠĠĠ": 3720,
      "Ġblessed": 3721,
      "chant": 3722,
      "Do": 3723,
      "Ġcries": 3724,
      "Ġtoday": 3725,
      "arl": 3726,
      "church": 3727,
      "Ġfors": 3728,
      "Ġreb": 3729,
      "ades": 3730,
      "rah": 3731,
      "ĠCLA": 3732,
      "ĠDis": 3733,
      "Ġcompass": 3734,
      "Ġboats": 3735,
      "Ġdrown": 3736,
      "Ġnative": 3737,
      "noon": 3738,
      "ĠEDWARD": 3739,
      "ĠCLAUD": 3740,
      "round": 3741,
      "Ġhall": 3742,
      "Ġeld": 3743,
      "ĠBuck": 3744,
      "ĠGu": 3745,
      "ĠĠĠĠĠ": 3746,
      "iced": 3747,
      "ĠNestor": 3748,
      "Ġshoulder": 3749,
      "Ġende": 3750,
      "Ġheavenly": 3751,
      "Ġbelong": 3752,
      "Ġaddress": 3753,
      "iety": 3754,
      "Ġmonths": 3755,
      "ĠSweet": 3756,
      "Ġfuture": 3757,
      "MEO": 3758,
      "held": 3759,
      "Ġcust": 3760,
      "ases": 3761,
      "ĠSaint": 3762,
      "ĠHoney": 3763,
      "ishment": 3764,
      "Ġfloor": 3765,
      "ĠStill": 3766,
      "teen": 3767,
      "Ġconscience": 3768,
      "ĠROMEO": 3769,
      "Ġdeny": 3770,
      "DEMONA": 3771,
      "ĠDESDEMONA": 3772,
      "zz": 3773,
      "Ġmil": 3774,
      "Ġpier": 3775,
      "Ġparent": 3776,
      "Ġmel": 3777,
      "ĠCAP": 3778,
      "Ġshot": 3779,
      "ĠDi": 3780,
      "ENIUS": 3781,
      "Ġproc": 3782,
      "Ġchamber": 3783,
      "Ġhearing": 3784,
      "Ġtear": 3785,
      "ibly": 3786,
      "ĠMENENIUS": 3787,
      "OW": 3788,
      "orous": 3789,
      "Ġdull": 3790,
      "Ġtow": 3791,
      "Ġlest": 3792,
      "Ġlines": 3793,
      "Ġheir": 3794,
      "Ġreached": 3795,
      "ĠBE": 3796,
      "ĠCatherine": 3797,
      "ĠDROM": 3798,
      "Ġsaf": 3799,
      "Ġvile": 3800,
      "ists": 3801,
      "Ġcounten": 3802,
      "Ġshowed": 3803,
      "ĠDROMIO": 3804,
      "app": 3805,
      "hered": 3806,
      "Ġshr": 3807,
      "Ġshows": 3808,
      "Ġvo": 3809,
      "unning": 3810,
      "Ġspent": 3811,
      "Ġprodu": 3812,
      "Ġdidst": 3813,
      "Ġgreatest": 3814,
      "Ġflowers": 3815,
      "Ġmarch": 3816,
      "Ġsteeds": 3817,
      "Ġfalls": 3818,
      "Ġboys": 3819,
      "Ġbuy": 3820,
      "Ġutter": 3821,
      "ĠFRI": 3822,
      "ĠManette": 3823,
      "ĠÃ": 3824,
      "hel": 3825,
      "Ġbare": 3826,
      "Ġtoward": 3827,
      "Ġtomb": 3828,
      "ĠSomet": 3829,
      "ĠBel": 3830,
      "ĠCart": 3831,
      "Ġsacri": 3832,
      "Ġspeaks": 3833,
      "ĠPross": 3834,
      "Ġmiserable": 3835,
      "Ġleaving": 3836,
      "Ġspoken": 3837,
      "Ġmemory": 3838,
      "ĠCLAUDIO": 3839,
      "ae": 3840,
      "ky": 3841,
      "Ġmourn": 3842,
      "Ġlack": 3843,
      "Ġlying": 3844,
      "Ġgain": 3845,
      "Ġgrew": 3846,
      "Ġweek": 3847,
      "ĠBl": 3848,
      "usion": 3849,
      "Ġwinds": 3850,
      "Ġdrunk": 3851,
      "Ġbreakfast": 3852,
      "Ġdrive": 3853,
      "Ġwounds": 3854,
      "IDA": 3855,
      "Ġbooks": 3856,
      "Ġflew": 3857,
      "Ġnigger": 3858,
      "Ġbottom": 3859,
      "Ġimpossible": 3860,
      "Ġ5": 3861,
      "isher": 3862,
      "Ġlot": 3863,
      "ĠBERO": 3864,
      "ends": 3865,
      "Ġflat": 3866,
      "Ġadvantage": 3867,
      "Ġincre": 3868,
      "Ġcounter": 3869,
      "WNE": 3870,
      "Ġdangerous": 3871,
      "ABEL": 3872,
      "ĠBEROWNE": 3873,
      "ium": 3874,
      "iod": 3875,
      "look": 3876,
      "par": 3877,
      "pter": 3878,
      "rid": 3879,
      "Ġtaste": 3880,
      "Ġnine": 3881,
      "owing": 3882,
      "ĠPETR": 3883,
      "Ġdoors": 3884,
      "pecially": 3885,
      "Ġknock": 3886,
      "cians": 3887,
      "Ġcoff": 3888,
      "Ġtravell": 3889,
      "formed": 3890,
      "Ġhelm": 3891,
      "Ġsubst": 3892,
      "ĠWilliam": 3893,
      "ĠPeace": 3894,
      "Ġgroan": 3895,
      "UCHIO": 3896,
      "ĠPETRUCHIO": 3897,
      "cal": 3898,
      "Ġdwell": 3899,
      "Ġhorn": 3900,
      "ĠFal": 3901,
      "ĠOLI": 3902,
      "Ġdoom": 3903,
      "Ġvent": 3904,
      "ĠNothing": 3905,
      "ortun": 3906,
      "Ġpecul": 3907,
      "Ġglorious": 3908,
      "Ġafternoon": 3909,
      "ails": 3910,
      "Ġconduct": 3911,
      "Ġcorner": 3912,
      "ĠHarker": 3913,
      "Ġrepeated": 3914,
      "Ġtrembling": 3915,
      "ĠHoneychurch": 3916,
      "Ġpeculiar": 3917,
      "she": 3918,
      "Ġsire": 3919,
      "Ġmeasure": 3920,
      "Ġstat": 3921,
      "aled": 3922,
      "Ġseven": 3923,
      "Ġsearch": 3924,
      "ĠLav": 3925,
      "Ġdispl": 3926,
      "Ġcler": 3927,
      "Ġteach": 3928,
      "Ġprofess": 3929,
      "Ġvengeance": 3930,
      "ĠPriam": 3931,
      "IER": 3932,
      "lig": 3933,
      "pherd": 3934,
      "uish": 3935,
      "anio": 3936,
      "ĠHarry": 3937,
      "ĠPED": 3938,
      "Ġflo": 3939,
      "Ġcheeks": 3940,
      "Ġdonations": 3941,
      "Ġheroes": 3942,
      "Ġvarious": 3943,
      "Ġtrademark": 3944,
      "HAM": 3945,
      "can": 3946,
      "Ġtreat": 3947,
      "Ġbla": 3948,
      "leg": 3949,
      "alous": 3950,
      "ĠBet": 3951,
      "ĠCRESS": 3952,
      "Ġsugg": 3953,
      "ĠJul": 3954,
      "Ġbrow": 3955,
      "Ġlovely": 3956,
      "OLIO": 3957,
      "Ġhonours": 3958,
      "Ġfearful": 3959,
      "ĠLuci": 3960,
      "Ġsupport": 3961,
      "Ġappears": 3962,
      "Ġservants": 3963,
      "ENTINE": 3964,
      "ĠRomeo": 3965,
      "ĠVALENTINE": 3966,
      "ĠCRESSIDA": 3967,
      "hant": 3968,
      "Ġbul": 3969,
      "erry": 3970,
      "Ġpet": 3971,
      "ĠSw": 3972,
      "ĠCall": 3973,
      "Ġproof": 3974,
      "Ġfoes": 3975,
      "Ġsworn": 3976,
      "Ġkindness": 3977,
      "Ġgiving": 3978,
      "Ġdrop": 3979,
      "Ġawful": 3980,
      "Ġclean": 3981,
      "Ġexclaim": 3982,
      "Ġstudy": 3983,
      "Ġendeav": 3984,
      "ĠCarton": 3985,
      "ABELLA": 3986,
      "cle": 3987,
      "ipe": 3988,
      "Ġfru": 3989,
      "Ġnice": 3990,
      "ĠHOST": 3991,
      "Ġmeat": 3992,
      "ĠCont": 3993,
      "urs": 3994,
      "osing": 3995,
      "Ġtwice": 3996,
      "Ġclosed": 3997,
      "Ġdesign": 3998,
      "ĠBeing": 3999,
      "Ġwrath": 4000,
      "INGHAM": 4001,
      "Ġprayers": 4002,
      "Ġinfl": 4003,
      "ĠGreek": 4004,
      "Ġexpected": 4005,
      "This": 4006,
      "Ġwisdom": 4007,
      "ĠTOBY": 4008,
      "Ġthroat": 4009,
      "ĠPANDARUS": 4010,
      "IG": 4011,
      "VOLIO": 4012,
      "field": 4013,
      "hor": 4014,
      "Ġmix": 4015,
      "verse": 4016,
      "ĠMen": 4017,
      "Ġshock": 4018,
      "Ġconv": 4019,
      "iece": 4020,
      "Ġspite": 4021,
      "IOL": 4022,
      "Ġarmy": 4023,
      "Ġhonourable": 4024,
      "lemen": 4025,
      "there": 4026,
      "Ġsteal": 4027,
      "Ġskill": 4028,
      "Ġopportun": 4029,
      "Ġloose": 4030,
      "Ġheight": 4031,
      "ĠTimon": 4032,
      "Ġhist": 4033,
      "Ġweather": 4034,
      "ĠCON": 4035,
      "ĠPOL": 4036,
      "Ġanim": 4037,
      "Ġdepend": 4038,
      "ĠGent": 4039,
      "perm": 4040,
      "Ġsmell": 4041,
      "Ġboast": 4042,
      "Ġmisery": 4043,
      "Ġborne": 4044,
      "Ġadmir": 4045,
      "ĠPhil": 4046,
      "Ġnecessary": 4047,
      "ĠCORIOL": 4048,
      "Ġwarrior": 4049,
      "ĠCORIOLANUS": 4050,
      "aly": 4051,
      "Ġsought": 4052,
      "Ġbank": 4053,
      "Ġfond": 4054,
      "sels": 4055,
      "ĠSat": 4056,
      "ĠNOR": 4057,
      "Ġalthough": 4058,
      "Ġspare": 4059,
      "Ġunb": 4060,
      "Ġdesc": 4061,
      "Ġmeaning": 4062,
      "Ġfleet": 4063,
      "Ġdegree": 4064,
      "Ġunhappy": 4065,
      "TEUS": 4066,
      "lin": 4067,
      "á½": 4068,
      "Ġtree": 4069,
      "Ġbuck": 4070,
      "ĠSy": 4071,
      "enter": 4072,
      "ĠMajesty": 4073,
      "ĠCor": 4074,
      "Ġanger": 4075,
      "Ġsuc": 4076,
      "ĠDarn": 4077,
      "âĢĶâĢľ": 4078,
      "Ġconsent": 4079,
      "Ġkingdom": 4080,
      "Ġguess": 4081,
      "Ġdrum": 4082,
      "Ġassist": 4083,
      "ĠNorth": 4084,
      "Ġwithal": 4085,
      "Ġeasily": 4086,
      "ĠPROTEUS": 4087,
      "Ġconstant": 4088,
      "Ġpicture": 4089,
      "Ġempty": 4090,
      "EB": 4091,
      "ew": 4092,
      "Ã©": 4093,
      "Ġsides": 4094,
      "Ġball": 4095
    },
    "merges": [
      "Ġ t",
      "h e",
      "Ġ a",
      "i n",
      "Ġ s",
      "Ġ w",
      "Ġt he",
      "o u",
      "r e",
      "n d",
      "Ġ o",
      "h a",
      "Ġ m",
      "â Ģ",
      "Ġ b",
      "e r",
      "i s",
      "Ġ f",
      "i t",
      "Ġ c",
      "Ġ Ċ",
      "o r",
      "l l",
      "e n",
      "o n",
      "Ġa nd",
      "Ġ d",
      "e d",
      "e s",
      "Ġt o",
      "Ġ I",
      "in g",
      "Ġ h",
      "Ġo f",
      "Ġ l",
      "a r",
      "Ġ p",
      "Ġ n",
      "Ġ he",
      "âĢ Ļ",
      "a n",
      "Ġ in",
      "a t",
      "Ġt h",
      "Ġ y",
      "o m",
      "ha t",
      "a s",
      "Ġ T",
      "Ġ g",
      "o t",
      "o w",
      "Ġ ha",
      "Ġy ou",
      "Ġb e",
      "v e",
      "Ġ A",
      "l e",
      "s t",
      "c e",
      "l d",
      "s e",
      "Ġ e",
      "i m",
      "u t",
      "g h",
      "e t",
      "Ġ Ġ",
      "a y",
      "c h",
      "it h",
      "Ġt hat",
      "i d",
      "Ġ it",
      "Ġ S",
      "i r",
      "l y",
      "Ġ u",
      "Ġ W",
      "Ġh is",
      "Ġw ith",
      "en t",
      "Ġf or",
      "Ġo n",
      "Ġ re",
      "Ġm y",
      "Ġ H",
      "Ġ âĢ",
      "a d",
      "Ġm e",
      "Ġn ot",
      "r i",
      "Ġs t",
      "Ġw e",
      "v er",
      "gh t",
      "r o",
      "ĠâĢ ľ",
      "a l",
      "Ġ is",
      "âĢ Ŀ",
      "Ġa s",
      "i ll",
      "Ġ M",
      "Ġw as",
      "k e",
      "Ġ B",
      "o o",
      "ĠT he",
      "he r",
      "i on",
      "r a",
      "Ġw h",
      "t er",
      "Ġ C",
      "ou r",
      "u r",
      "Ġh im",
      "ou ld",
      "c t",
      "Ġhe r",
      "Ġs o",
      "c k",
      "Ġs e",
      "a in",
      "Ġ P",
      "Ġa n",
      "u s",
      "a m",
      "o re",
      "om e",
      "Ġl i",
      "Ġ L",
      "Ġd e",
      "ĠA nd",
      "Ġ k",
      "Ġa ll",
      "Ġha ve",
      "Ġ F",
      "es s",
      "Ġa t",
      "Ġth is",
      "ou t",
      "Ġs u",
      "i l",
      "Ġ O",
      "Ġ G",
      "Ġyou r",
      "Ġb ut",
      "Ġd o",
      "g e",
      "Ġs h",
      "r om",
      "i f",
      "p e",
      "Ġ D",
      "Ġha d",
      "Ġth ou",
      "Ġ E",
      "ĠĠ ĠĠ",
      "Ġs a",
      "i ght",
      "es t",
      "a nd",
      "Ġb y",
      "oo d",
      "Ġs he",
      "Ġ v",
      "ar t",
      "Ġn o",
      "Ġw he",
      "n t",
      "Ġf rom",
      "i c",
      "Ġ N",
      "q u",
      "a ll",
      "Ġn e",
      "Ġu p",
      "Ġw ill",
      "or d",
      "u l",
      "ar d",
      "Ġs ha",
      "u st",
      "an t",
      "re d",
      "ĠH e",
      "âĢ Ķ",
      "Ġ r",
      "Ġc on",
      "ou s",
      "Ġk n",
      "Ġo r",
      "e ll",
      ". âĢĿ",
      "t h",
      "b le",
      "on g",
      "Ġm an",
      "re s",
      "in d",
      "Ġthe y",
      "Ġa re",
      "i ch",
      "e m",
      "Ġg o",
      "i e",
      "ou nd",
      "as t",
      "a k",
      "Ġl o",
      "l f",
      "er s",
      "ha n",
      "p p",
      "Ġthe m",
      "on e",
      "Ġc om",
      "a ke",
      "Ġthe re",
      "ĠT h",
      "r y",
      "Ġthe ir",
      "u n",
      "Ġw ould",
      "v en",
      "in e",
      "Ġl e",
      "am e",
      "u m",
      "Ġ Y",
      "Ġon e",
      "l a",
      "ow n",
      "f e",
      "Ġwh ich",
      "i ve",
      "at e",
      "ver y",
      "Ġwe re",
      "Ġa m",
      "Ġa l",
      "ĠB ut",
      "Ġ R",
      "Ġa r",
      "Ġf e",
      "Ġw hat",
      "re at",
      "e p",
      "oo k",
      "Ġf a",
      "Ġ out",
      "Ġwh o",
      "Ġ [",
      "o st",
      "at ion",
      "Ġw or",
      "Ġe x",
      "or t",
      "Ġs p",
      "Ġth y",
      "E N",
      "se lf",
      "Ġ our",
      "Ġsha ll",
      "Ġc an",
      "E R",
      "o l",
      "is t",
      "Ġwhe n",
      "Ġm ore",
      "Ġu n",
      "Ġ j",
      "Ġa g",
      "i g",
      "Ġn ow",
      "Ġ if",
      "ĠW h",
      "Ġsa id",
      "u e",
      "e nd",
      "Ġ J",
      "id e",
      "o d",
      "Ġkn ow",
      "t her",
      "Ġu s",
      "Ġa b",
      "- -",
      "l i",
      "Ġthe n",
      "Ġs ay",
      "U S",
      "ĠT o",
      "u re",
      "Ġin t",
      "f ore",
      "Ġt r",
      "p t",
      "in k",
      "Ġse e",
      "a u",
      "Ġ[ _",
      "w e",
      "I N",
      "Ġg ood",
      "Ġs ome",
      "Ġb l",
      ". _",
      "Ġ K",
      "o s",
      "Ġli ke",
      "Ġan y",
      "Ġ ro",
      "Ġp ro",
      "Ġt han",
      "is h",
      "Ġd id",
      "Ġp r",
      "A R",
      "Ġ qu",
      "ou gh",
      "Ġt im",
      "ot her",
      "o se",
      "o p",
      "ĠT hat",
      "it y",
      "Ġha nd",
      "an ce",
      "Ġthe e",
      "Ġto o",
      "A N",
      "at her",
      "ar s",
      "e l",
      "w n",
      "ur n",
      "Ġbe en",
      "a re",
      "Ġc ould",
      "v es",
      "Ġ âĢĻ",
      "Ġag ain",
      "w ay",
      ", âĢĿ",
      "Ġb r",
      "E S",
      "Ġ en",
      "._ ]",
      "Ġm ay",
      "ot h",
      "b er",
      "Ġm ust",
      "Ġo ther",
      "re e",
      "it t",
      "i es",
      "Ġsh ould",
      "i ce",
      "o nd",
      "Ġa f",
      "v ed",
      "at h",
      "Ġl et",
      "Ġhe re",
      "Ġd is",
      "Ġm ad",
      "as s",
      "Ġl ook",
      "o ld",
      "ĠW hat",
      "ĠE n",
      "ĠI t",
      "ing s",
      "Ġs pe",
      "u ch",
      "O N",
      "i re",
      "Ġc ome",
      "a ve",
      "f ul",
      "en ce",
      "Ġtim e",
      "Ġ _",
      "he d",
      "Ġc h",
      "Ġup on",
      "Ġsu ch",
      "ĠW he",
      "e ct",
      "a g",
      "u d",
      "it e",
      "c i",
      "Ġwe ll",
      "Ġd ay",
      "Ġlo ve",
      "a ble",
      "Ġe y",
      "Ġg reat",
      "Ġf l",
      "i le",
      "Ġint o",
      "r ow",
      "ĠF or",
      "i ck",
      "h ing",
      "Ġh ow",
      "a ge",
      "or n",
      "Ġof f",
      "n ess",
      "Ġd own",
      "Ġ im",
      "is e",
      "Ġt w",
      "Ġp o",
      "res s",
      "Ġc l",
      "? âĢĿ",
      "Ġ very",
      "i p",
      "a ck",
      "Ġ ra",
      "Ġp l",
      "ĠY ou",
      "ar k",
      "a b",
      "ou nt",
      "Ġl ord",
      "Ġo ver",
      "S T",
      "Ġ V",
      "Ġm ake",
      "u ll",
      "Ġc ha",
      "f t",
      "ĠM r",
      "p er",
      "Ġwhe re",
      "a ch",
      "Ġm uch",
      "O R",
      "ĠI f",
      "Ġ ri",
      "ĠI n",
      "ĠA s",
      "Ġ U",
      "Ġthe se",
      "c c",
      "Ġbe fore",
      "Ġab out",
      "is s",
      "Ġth ink",
      "Ġf o",
      "Ġa d",
      "Ġf ri",
      "v ing",
      "Ġw ay",
      "ĠĠĠĠ ĠĠĠĠ",
      "Ġp art",
      "nd er",
      "w ard",
      "o y",
      "Ġp er",
      "Ġ hat",
      "Ġst r",
      "Ġd es",
      "Ġp e",
      "Ġne ver",
      "Ġo wn",
      "n g",
      "Ġy et",
      "m ent",
      "o ve",
      "Ġl ong",
      "c y",
      "ad y",
      "ĠM y",
      "Ġs ir",
      "an s",
      "Ġhe art",
      "ĠĠ Ġ",
      "a p",
      "Ġp re",
      "ĠEn ter",
      "s s",
      "Ġo ld",
      "Ġe very",
      "f f",
      "Ġs c",
      "Ġbe t",
      "ig n",
      "Ġm ost",
      "Ġha s",
      "Ġm ight",
      "Ġmad e",
      "l ess",
      "Ġfri end",
      "I O",
      "Ġm en",
      "ir st",
      "ĠS t",
      "Ġth r",
      "Ġf ather",
      "Ġcom p",
      "ĠS o",
      "ou se",
      "Ġt ell",
      "itt le",
      "Ġs w",
      "! âĢĿ",
      "ĠW e",
      "Ġre m",
      "Ġhe ad",
      "Ġhe a",
      "Ġwor k",
      "A L",
      "c es",
      "ĠB e",
      "j ect",
      "Ġl ittle",
      "Ġg l",
      "E x",
      "ĠS he",
      "Ġtw o",
      "ĠTh is",
      "Ġw ar",
      "Ġn ight",
      "ĠThe re",
      "Ġar m",
      "i gh",
      "Ġa way",
      "Ġw r",
      "i ld",
      "Ġg r",
      "Ġ ke",
      "Ġey es",
      "Ġaf ter",
      "l ed",
      "i ous",
      "Ġy e",
      "Ġon ly",
      "Ġt ake",
      "Ġse em",
      "as e",
      "ĠThe n",
      "Ġp la",
      "Ġw ord",
      "ĠW ith",
      "t y",
      "ion s",
      "er t",
      "Ġh o",
      "Ġbe g",
      "l es",
      "Ġha r",
      "Ġli fe",
      "Ġb ack",
      "all y",
      "u ck",
      "u nt",
      "Ġe ver",
      "Ġf irst",
      "Ġcon t",
      "IN G",
      "on s",
      "Ġthou ght",
      "ĠWhe n",
      "E T",
      "Ġg ive",
      "ri ed",
      "O L",
      "Ġspe ak",
      "Ġh on",
      "Ġc all",
      "an g",
      "Ġs m",
      "or s",
      "ar y",
      "Ġhat h",
      "in ce",
      "Ġo b",
      "Ġre p",
      "re n",
      "et h",
      "Ġu nder",
      "Ġg ra",
      "a c",
      "Ġst ill",
      "p s",
      "en e",
      "ĠP ro",
      "I C",
      "it her",
      "Ġgo d",
      "E L",
      "Ġs we",
      "Ġe ven",
      "Ġthr ough",
      "Ġh ouse",
      "le m",
      "ĠN o",
      "ĠH ow",
      "er v",
      "au se",
      "Ġt urn",
      "al k",
      "Ġcom m",
      "Ġ (",
      "in t",
      "a ce",
      "o ck",
      "Ġw at",
      "Ġhe ar",
      "Ġthou gh",
      "at ed",
      "Ġb re",
      "Ġp le",
      "Ġg et",
      "Ġp res",
      "n e",
      "he s",
      "Ġc ame",
      "Ġre s",
      "d e",
      "Ġ Q",
      "t e",
      "i ed",
      "Ġbe ing",
      "Ġhim self",
      "Ġg ent",
      "ie ld",
      "l s",
      "ll ow",
      "Ġe nd",
      "Ġw ent",
      "n ot",
      "Ġp ass",
      "Ġb o",
      "Ġde ath",
      "Ġat t",
      "Ġ ent",
      "ou ght",
      "c l",
      "c ed",
      "Ġd one",
      "Ġth ose",
      "Ġc our",
      "Ġnot hing",
      "as ter",
      "ct ion",
      "Ġs et",
      "I R",
      "Ġcon s",
      "Ġs l",
      "Ġman y",
      "Ġbl ood",
      "Ġc o",
      "Ġm ar",
      "k s",
      "Ġhea ven",
      "Ġim p",
      "ĠWh y",
      "Ġw ha",
      "Ġl ast",
      "Ġbe l",
      "om et",
      "Ġj ust",
      "Ġt e",
      "a id",
      "Ġs on",
      "au ght",
      "ĠK ing",
      "Ġbe c",
      "ĠH is",
      "Ġa cc",
      "re w",
      "Ġre t",
      "ĠThe y",
      "I US",
      "Ġwor ld",
      "ow er",
      "Ġn or",
      "Ġw om",
      "Ġg ot",
      "od y",
      "i ly",
      "i v",
      "l ing",
      "Ġm ine",
      "Ġd ist",
      "Ġe m",
      "Ġit s",
      "ĠN ow",
      "re t",
      "Ġw ant",
      "Ġst and",
      "i an",
      "ct or",
      "Ġri ght",
      "p en",
      "Ġc r",
      "ĠK ING",
      "b e",
      "Ġp ut",
      "Ġre st",
      "ou d",
      "L O",
      "Ġm ind",
      "e ver",
      "Ġpla ce",
      "a w",
      "A T",
      "t he",
      "at ter",
      "Ġa p",
      "Ġc ar",
      "Ġfe ar",
      "Ġs le",
      "Ġth us",
      "ĠG od",
      "ow s",
      "ĠL u",
      "Ġcan not",
      "Ġfa ir",
      "Ġyou ng",
      "ĠO f",
      "ĠL et",
      "Ġar t",
      "Ġwith out",
      "g ed",
      "l and",
      "i o",
      "Ġt ra",
      "U C",
      "ut en",
      "ĠI s",
      "Ġb ra",
      "Ġne w",
      "Ġfa ce",
      "Ġde ad",
      "Ġn ame",
      "u b",
      "i x",
      "Ġw ind",
      "ain t",
      "ou l",
      "Ġhand s",
      "pe ct",
      "f or",
      "I A",
      "Ġsa w",
      "Ġf ell",
      "Ġp ur",
      "Ġli ght",
      "Ġk ind",
      "in s",
      "Ġde ar",
      "Ġb oth",
      "Ġs omet",
      "Ġf ind",
      "i er",
      "Ġs ame",
      "Ġa pp",
      "Ġon ce",
      "Ġbet ter",
      "Ġmy self",
      "i a",
      "ber g",
      "ĠD o",
      "p l",
      "Ġsh ip",
      "Ġt ill",
      "T he",
      "Ġke ep",
      "g et",
      "Ġpo or",
      "en s",
      "uten berg",
      "if e",
      "I L",
      "or row",
      "Ġha pp",
      "ĠB y",
      "Ġk ing",
      "in ess",
      "os s",
      "er m",
      "Ġro om",
      "A M",
      "Ġan s",
      "Ġan other",
      "l t",
      "s h",
      "Ġhe ard",
      "se l",
      "ĠO r",
      "oo l",
      "Ġwh ile",
      "Ġc ount",
      "Ġg u",
      "Ġst e",
      "i us",
      "AR D",
      "Ġfo llow",
      "or y",
      "ul t",
      "our s",
      "op le",
      "Ġ 1",
      "it s",
      "Ġtoo k",
      "a il",
      "R O",
      "i z",
      "Ġf ull",
      "Ġth ings",
      "Ġb est",
      "Ġf ound",
      "Ġkn e",
      "Ġm other",
      "Ġtr ue",
      "e f",
      "ĠA N",
      "ĠWhe re",
      "Ġse a",
      "Ġagain st",
      "ĠTh ou",
      "Ġd r",
      "Ġf ar",
      "p h",
      "n ing",
      "is ter",
      "Ġn at",
      "Ġswe et",
      "Ġsu pp",
      "ert ain",
      "ĠA t",
      "ĠA n",
      "ES S",
      "m e",
      "Ġso on",
      "o ke",
      "ĠT ro",
      "Ġas k",
      "Ġc he",
      "ĠG utenberg",
      "e unt",
      "ĠM iss",
      "T ER",
      "re ad",
      "th ing",
      "Ġpe ople",
      "Ġhe l",
      "Ġth ree",
      "Ġpres ent",
      "ĠC ome",
      "Ġh ome",
      "Ġsu b",
      "at s",
      "Ġth ing",
      "Ġas s",
      "Ġcon f",
      "ie f",
      "Ġc han",
      "Ġst re",
      "ĠA r",
      "en er",
      "Ġbr other",
      "ĠWh ich",
      "ĠS c",
      "a ir",
      "Ġg i",
      "ĠWh o",
      "Ġm o",
      "ha r",
      "Ġc ou",
      "Ġf all",
      "at es",
      "Ġd ra",
      "Ġd on",
      "fe ct",
      "Ex eunt",
      "Ġpr ay",
      "Ġr ound",
      "Ġsay s",
      "ĠL ord",
      "Ġle ft",
      "Ġle ave",
      "Ġfe el",
      "ĠPro ject",
      "EN E",
      "Ġh old",
      "ĠS ir",
      "Ġs ide",
      "c hed",
      "ĠT H",
      "Ġsle ep",
      "Ex it",
      "Ġo pen",
      "ak es",
      "on t",
      "Ġsu n",
      "Ġw a",
      "r u",
      "ar n",
      "ation s",
      "m ed",
      "Ġha st",
      "ut e",
      "Ġple as",
      "Ġret urn",
      "as on",
      "Ġg one",
      "Ġli ve",
      "i ble",
      "_ .",
      "Ġin st",
      "n er",
      "Ġb ed",
      "Ġe l",
      "Ġap pe",
      "Ġch ild",
      "d en",
      "Ġse c",
      "b y",
      "ĠN or",
      "ou b",
      "Ġh igh",
      "ent s",
      "I T",
      "Ġse en",
      "it ion",
      "Ġwh om",
      "ĠHe re",
      "u nd",
      "Ġto ld",
      "Ġdo or",
      "L E",
      "id es",
      "m an",
      "i al",
      "Ġu nt",
      "Ġsh ow",
      "Ġt re",
      "Ġne ar",
      "g er",
      "m ost",
      "Ġd oth",
      "ward s",
      "Ġbe ar",
      "ut h",
      "t is",
      "Ġs k",
      "ĠP r",
      "Ġho pe",
      "u ke",
      "ak ing",
      "w er",
      "Ġarm s",
      "Ġwho se",
      "Ġl ay",
      "Ġd aught",
      "Ġc a",
      "Ġdis c",
      "p le",
      "is ed",
      "ri ght",
      "Ġlook ed",
      "Ġwha le",
      "o ice",
      "Ġhon our",
      "m b",
      "Ġc are",
      "Ġcha r",
      "ĠC a",
      "ĠâĢ ĺ",
      "Ġp ers",
      "Ġhar d",
      "ur y",
      "-- --",
      "Ġh or",
      "Ġword s",
      "Ġm on",
      "Ġe ach",
      "Ġs il",
      "Ġs ur",
      "Ġw ife",
      "Ġb ro",
      "is on",
      "ĠS C",
      "Ġcom es",
      "Ġa c",
      "a le",
      "a red",
      "is hed",
      "Ġme an",
      "ri b",
      "ĠC H",
      "Ġen ough",
      "Ġey e",
      "art h",
      "x t",
      "Ġs at",
      "Ġseem ed",
      "Ġs oul",
      "ĠI I",
      "Ġ *",
      "it ed",
      "Ġfor m",
      "ĠW ell",
      "ĠA l",
      "in ed",
      "t ing",
      "Ġl ady",
      "ĠO n",
      "Ġre c",
      "Ġhel p",
      "Ġt alk",
      "Ġgod s",
      "Ġh um",
      "way s",
      "un e",
      "l ic",
      "ĠS e",
      "Ġwom an",
      "d er",
      "Ġha lf",
      "A P",
      "Ġsomet hing",
      "Ġm is",
      "Ġs erv",
      "en ed",
      "Ġm aster",
      "Ġin de",
      "Ġno ble",
      "ce pt",
      "pp ed",
      "F F",
      "ĠSC ENE",
      "Ġre ad",
      "Ġst ay",
      "Ġfriend s",
      "s o",
      "ĠY our",
      "e red",
      "get her",
      "ain s",
      "ver s",
      "Ġgo ing",
      "we en",
      "Ġb us",
      "ĠEn g",
      "ss es",
      "Ġbe h",
      "Ġsu re",
      "Ġgent lem",
      "le t",
      "s ide",
      "Ġdo es",
      "Ġbe a",
      "Ġal ong",
      "a v",
      "Ġm atter",
      "Ġd ark",
      "Ġu se",
      "ed s",
      "Ġad v",
      "ĠN ot",
      "t le",
      "Ġh us",
      "Ġl and",
      "Ġg ener",
      "Ġs ound",
      "ond er",
      "la ck",
      "U R",
      "Ġp ower",
      "r ing",
      "T is",
      "Ġwho le",
      "Ġpl ay",
      "Ġw it",
      "Ġe arth",
      "sel ves",
      "en se",
      "Ġp ri",
      "Ġr un",
      "ĠH er",
      "Ġdaught er",
      "et s",
      "Ġlet ter",
      "Ġwat er",
      "Ġb reat",
      "Ġad d",
      "Ġs ister",
      "Ġm orn",
      "ĠA ll",
      "ly sses",
      "ĠE li",
      "Ġk ill",
      "ĠS ha",
      "ut y",
      "EN T",
      "ĠF IR",
      "ĠFIR ST",
      "Ġm er",
      "an ge",
      "v il",
      "Ġin c",
      "ĠEli z",
      "f ort",
      "Ġm om",
      "u res",
      "Ġs ent",
      "Ġa ir",
      "at ch",
      "ĠĠĠĠĠĠĠĠ ĠĠĠĠĠĠĠĠ",
      "Ġel se",
      "an k",
      "Ġgo ld",
      "A C",
      "Ġc ertain",
      "ro ss",
      "Ġam ong",
      "ĠU lysses",
      "ĠM ar",
      "Ġc ur",
      "ab eth",
      "Ġb oy",
      "Ġcount ry",
      "Ġinde ed",
      "b and",
      "Ġstr ong",
      "ĠEliz abeth",
      "Ġf ore",
      "Ġst ra",
      "Ġbel ie",
      "er n",
      "Ġf ire",
      "ĠO F",
      "one y",
      "Ġf ight",
      "Ġsp ir",
      "Ġb ody",
      "Ġg ri",
      "T H",
      "Ġun c",
      "ĠLu cy",
      "ĠSc ene",
      "Ġt ri",
      "Ġg ave",
      "â Ħ",
      "âĦ ¢",
      "h y",
      "Ġl aw",
      "le ct",
      "ir t",
      "ang er",
      "ar ge",
      "Ġal ways",
      "Ġans wer",
      "E C",
      "Ġfor th",
      "ĠĠĠĠ ĠĠ",
      "ĠA y",
      "ĠA nt",
      "Ġv oice",
      "ĠG re",
      "Ġs ince",
      "Ġli e",
      "i red",
      "Ġin f",
      "ce i",
      "if t",
      "Ġhus band",
      "Ġp oss",
      "Ġwith in",
      "Ġpo int",
      "Ġd ie",
      "Ġal one",
      "t en",
      "Ġbr ing",
      "Ġm ist",
      "ĠW ill",
      "ĠJ ove",
      "Ġm in",
      "ant s",
      "Ġday s",
      "Ġh our",
      "Ġbet ween",
      "il t",
      "an e",
      "i et",
      "as h",
      "g s",
      "Ġwor th",
      "Ġgr ound",
      "Ġex p",
      "Ġs ight",
      "Ġre g",
      "e re",
      "Ġkne w",
      "ci ous",
      "Ġmorn ing",
      "Ġbec ause",
      "Ġ ill",
      "o ll",
      "r ance",
      "Ġto gether",
      "Ġfor t",
      "A G",
      "Ġmom ent",
      "Ġre ason",
      "Ġme et",
      "k en",
      "s and",
      "Ġin d",
      "ĠG ree",
      "Ġr ather",
      "Ġst ate",
      "AN D",
      "ĠY et",
      "Ġst ood",
      "Ġd ro",
      "A S",
      "Ġa w",
      "Ġl ess",
      "at i",
      "ĠD uke",
      "Ġe ar",
      "Ġf am",
      "Ġde ep",
      "Ġf ool",
      "oub t",
      ". âĢĶ",
      "P H",
      "Ġw ish",
      "ad e",
      "ĠG o",
      "Ġc le",
      "ĠU n",
      "Ġthere fore",
      "Ġye ars",
      "im e",
      "ul ar",
      "Ġb es",
      "al s",
      "Ġn one",
      "Ġin v",
      "Ġre f",
      "ĠF rom",
      "u p",
      "Ġc op",
      "e c",
      "Ġv i",
      "ĠQ ue",
      "Ġst ri",
      "Ġa ct",
      "Ġf ield",
      "Ġd if",
      "ent ly",
      "Ġher self",
      "Ġin ter",
      "at ing",
      "u ri",
      "Ġp rom",
      "Ġsp oke",
      "u al",
      "Ġar ound",
      "ĠAN T",
      "Ġwh ite",
      "Ġal most",
      "I S",
      "n ce",
      "r on",
      "ĠG ood",
      "Ġother s",
      "L A",
      "g g",
      "Ġlo st",
      "ĠR O",
      "u red",
      "Ġt ong",
      "Ġin s",
      "OR D",
      "u ff",
      "ou ch",
      "Ġrem em",
      "Ġde l",
      "Ġs ing",
      "Ġf ree",
      "d ay",
      "out h",
      "I AN",
      "li ke",
      "os ed",
      "Ġbus iness",
      "C E",
      "Ġw alk",
      "Ġcour se",
      "Ġany thing",
      "_. ]",
      "Ġp ra",
      "Ġcour t",
      "Ġwh y",
      "Ġthou sand",
      "Ġs er",
      "um p",
      "Ġpe ace",
      "Ġne xt",
      "ĠMr s",
      "b ody",
      "Ġbeg an",
      "ĠQ U",
      "un g",
      "Ġw all",
      "Ġtim es",
      "Ġch ief",
      "y ing",
      "z e",
      "Ġex c",
      "Ġto wn",
      "U T",
      "Ġc ause",
      "or ry",
      "Ġs n",
      "E M",
      "ha b",
      "Ġf r",
      "Ġbre ak",
      "o g",
      "Y ou",
      "Ġbr ought",
      "Ġstr ange",
      "Ġsw ord",
      "sh ip",
      "ak en",
      "Ġv is",
      "ra ce",
      "Ġpl ain",
      "Ġcou n",
      "Ġre l",
      "Ġo cc",
      "Ġsa il",
      "er y",
      "Ġto wards",
      "ĠR ome",
      "Ġex t",
      "ĠCH AP",
      "ĠCHAP TER",
      "ĠL e",
      "an y",
      "Ġcall ed",
      "Ġfe w",
      "ĠHe ctor",
      "Ġturn ed",
      "Ġd oubt",
      "al m",
      "Ġqu est",
      "Ġd ri",
      "ull y",
      "ce ed",
      "ain ed",
      "d den",
      "Ġc ried",
      "Ġg re",
      "id er",
      "ĠD e",
      "ĠTh y",
      "Ġcl ose",
      "ST A",
      "Ġwr ong",
      "ĠSha ll",
      "ent ion",
      "ĠM AR",
      "Ġne ed",
      "p r",
      "re am",
      "Ġyou th",
      "ren ce",
      "u se",
      "Ġnat ure",
      "Ġqu ite",
      "Ġpers on",
      "Ġyour self",
      "ON D",
      "ir d",
      "Ġpr ison",
      "ud e",
      "Ġfell ow",
      "Ġcom ing",
      "Ġqu ick",
      "c ome",
      "Ġm ark",
      "Ġf ur",
      "ĠT han",
      "Ġha ving",
      "K E",
      "am p",
      "AN T",
      "Ġte ars",
      "Ġbelie ve",
      "U L",
      "Ġb lack",
      "Ġc reat",
      "on y",
      "st and",
      "for m",
      "Ġm ur",
      "Ġde c",
      "Ġb u",
      "Ġm aid",
      "Ġc or",
      "Ġv al",
      "Ġt em",
      "Ġth ine",
      "Ġc ra",
      "ĠP e",
      "o e",
      "Ġd ire",
      "Ġme ans",
      "ic al",
      "Ġfe lt",
      "Ġj o",
      "he ad",
      "en n",
      "Ġl ate",
      "Ġal so",
      "Ġsh ort",
      "m en",
      "ĠN ay",
      "la im",
      "Ġse nd",
      "Ġtr uth",
      "Ġgi ven",
      "m m",
      "re nt",
      "Ġw onder",
      "Ġit self",
      "Ġcomm and",
      "Ġatt end",
      "IC H",
      "o f",
      "ĠD U",
      "Ġpre t",
      "Ġt ry",
      "ou ble",
      "Ġp ar",
      "Ġj oy",
      "c hes",
      "I M",
      "e ch",
      "ĠO ur",
      "Ġv ill",
      "ĠTro y",
      "Ġdra w",
      "W hat",
      "im es",
      "p ose",
      "Ġs ort",
      "Ġb ound",
      "Ġh ur",
      "Ġdid n",
      "Ġbeh ind",
      "Ġw ound",
      "Ġb ow",
      "le y",
      "Ġsu it",
      "Ġsu dden",
      "Ġd read",
      "Ġst art",
      "E D",
      "ha ps",
      "ĠL E",
      "ĠR ICH",
      "Ġhea v",
      "ha m",
      "Ġm akes",
      "ie w",
      "Ġsm all",
      "b s",
      "Ġgent le",
      "ar ing",
      "ment s",
      "Ġs ign",
      "Ġre d",
      "pt ain",
      "Ġcr own",
      "ĠTh us",
      "ir c",
      "ress ed",
      "Ġfo ot",
      "Ġt er",
      "Ġthan k",
      "Ġtong ue",
      "ĠT om",
      "Ġf ly",
      "e k",
      "Ġw ood",
      "ĠH ave",
      "ort al",
      "Ġf our",
      "st er",
      "ill es",
      "cei ved",
      "ĠRICH ARD",
      "i b",
      "o h",
      "re ady",
      "Ġf al",
      "Ġask ed",
      "Ġfa ith",
      "Ġgentlem an",
      "Ġg row",
      "um b",
      "Ġaf f",
      "Ġo pp",
      "Ġd et",
      "ĠS EC",
      "Ġgra ce",
      "c ess",
      "Ġs ad",
      "Ġb id",
      "est y",
      "Ġc ond",
      "ĠL A",
      "Ġkn own",
      "u ed",
      "Ġc old",
      "IN E",
      "Ġpro v",
      "Ġwat ch",
      "ĠSEC OND",
      "R Y",
      "er ing",
      "Ġwork s",
      "he re",
      "Ġc ry",
      "Ġs orrow",
      "Ġlook ing",
      "Ġd iv",
      ", âĢĶ",
      "Ġsu ff",
      "E EN",
      "ĠA hab",
      "ĠThe se",
      "I t",
      "ot t",
      "e g",
      "w ell",
      "ĠF rance",
      "Ġle ad",
      "ch illes",
      "us h",
      "Ġe v",
      "ĠA C",
      "n o",
      "f ully",
      "ent y",
      "Ġqu e",
      "Ġc irc",
      "ĠS ome",
      "a x",
      "u es",
      "Ġm et",
      "Ġhow ever",
      "Ġbreat h",
      "ĠQU EEN",
      "c a",
      "ĠA chilles",
      "Ġj ud",
      "Ġnew s",
      "I D",
      "W N",
      ": --",
      "t hat",
      "Ġ i",
      "it er",
      "es ar",
      "ĠB r",
      "li ed",
      "Ġple ase",
      "Ġof ten",
      "ĠM in",
      "o k",
      "Ġe ither",
      "Ġcom fort",
      "Ġwom en",
      "e y",
      "or k",
      "Ġb at",
      "Ġg ir",
      ". .",
      "Ġb ook",
      "ĠA g",
      "U N",
      "as k",
      "Ġt erm",
      "Ġs la",
      "Ġe re",
      "Ġe as",
      "Ġk iss",
      "Ġso ld",
      "Ġal ready",
      "Ġv iew",
      "t o",
      "Ġp a",
      "ĠF AL",
      "STA FF",
      "ĠFAL STAFF",
      "Ġs it",
      "Ġhapp y",
      "Ġob s",
      "Ġbra ve",
      "it ies",
      "Ġbl ess",
      "Ġha ng",
      "a z",
      "ĠĠĠĠ ĠĠĠ",
      "ron ic",
      "Ġd est",
      "Ġre qu",
      "ĠU p",
      "m p",
      "Ġ es",
      "i ke",
      "Ġm oney",
      "Ġv irt",
      "Ġsha me",
      "Ġthem selves",
      "ĠDU KE",
      "Ġde p",
      "Ġfe et",
      "al th",
      "ĠP R",
      "ing ly",
      "Ġgri ef",
      "o or",
      "M AN",
      "r ant",
      "ĠC h",
      "ce ive",
      "us ed",
      "ĠO ne",
      "Ġbre ast",
      "Ġem b",
      "Ġsub ject",
      "Ġfur ther",
      "l ish",
      "Ġt aken",
      "Ġw ild",
      "Ġm id",
      "or m",
      "ĠL UC",
      "oh n",
      "c ri",
      "ter n",
      "Ġc ut",
      "en g",
      "ĠN e",
      "Ġcont in",
      "Ġappe ar",
      "ĠCa esar",
      "Ġspir it",
      "u ght",
      "Ġm ount",
      "ous in",
      "Ġthought s",
      "u c",
      "Ġl ow",
      "Ġb ar",
      "Ġv ain",
      "Ġunder stand",
      "i res",
      "IC K",
      "Ġhor se",
      "y al",
      "Ġp ay",
      "ĠA R",
      "ĠS h",
      "Ġcons ider",
      "c ha",
      "Ġd ream",
      "ĠEng land",
      "Ġgener al",
      "ur ch",
      "Ġa ge",
      "o om",
      "Ġf ast",
      "Ġgl ad",
      "ub b",
      "an c",
      "Ġsh ore",
      "Ġman ner",
      "em ent",
      "Ġfa v",
      "Ġab ove",
      "Ġpro f",
      "Ġapp ro",
      "w h",
      "Ġha ir",
      "ve l",
      "Ġdr ink",
      "a ct",
      "Ġd en",
      "ĠJ ohn",
      "Ġhe nce",
      "ĠM ad",
      "Ġwhe ther",
      "Ġbea uty",
      "in es",
      "Ġl ad",
      "ĠC har",
      "ĠD ar",
      ". âĢĻ",
      "f ter",
      "Ġl au",
      "Ġli es",
      "R ESS",
      "he n",
      "Ġb orn",
      "ard s",
      "is ing",
      "it ing",
      "Ġke pt",
      "d y",
      "u g",
      "on es",
      "ĠE ven",
      "Ġcop y",
      "Ġl ist",
      "Ġfor g",
      "Ġle ast",
      "Ġpre v",
      "Ġt ouch",
      "Ġad m",
      "Ġfal se",
      "I ST",
      "Ġdis p",
      "ot s",
      "Ġfor ce",
      "ri age",
      "li ce",
      "ĠANT ON",
      "Ġm outh",
      "Ġb old",
      "ll y",
      "ot e",
      "ren ch",
      "p o",
      "Ġl aid",
      "Ġpr oud",
      "Ġd anger",
      "ut ion",
      "Ġde vil",
      "Ġ ir",
      "ĠA re",
      "um ber",
      "ĠDar cy",
      "oo se",
      "ra c",
      "Ġquest ion",
      "Ġe lect",
      "ab ly",
      "Ġcomm on",
      "---- ----",
      "O ST",
      "O h",
      "Ġp ati",
      "ow ers",
      "Ġpur pose",
      "Ġt en",
      "Ġtr ust",
      "ĠQue en",
      "Ġle arn",
      "Ġh ost",
      "Ġre ady",
      "ck s",
      "ĠR e",
      "ag es",
      "L ES",
      "Ġs im",
      "Ġwe ep",
      "ard on",
      "Ġab s",
      "Ġbeg in",
      "ce nd",
      "Ġpret ty",
      "Ġb an",
      "ĠTro j",
      "T o",
      "k es",
      "ow ed",
      "Ġdes p",
      "Ġpleas ure",
      "an ces",
      "Ġc ousin",
      "Ġhe ld",
      "ĠP h",
      "il ed",
      "Ġex pect",
      "Ġt end",
      "Ġf in",
      "Ġc ase",
      "ĠP RO",
      "we red",
      "ĠII I",
      "Ġp ast",
      "Ġhe ro",
      "ĠPR IN",
      "Ġsec ond",
      "Ġm us",
      "Ġf le",
      "Ġremem ber",
      "u ous",
      "ĠT e",
      "Ġb ad",
      "ĠP er",
      "ate ly",
      "Ġans wered",
      "Ġstre ng",
      "ve re",
      "Ġpart ic",
      "a j",
      "Ġseem s",
      "Ġsay ing",
      "Ġpre p",
      "Ġres pect",
      "Ġpass ed",
      "Ġdif fe",
      "Ġh ither",
      "ĠA lice",
      "g ing",
      "v i",
      "ĠF l",
      "Ġen em",
      "Ġterm s",
      "Ġe at",
      "Ġus ed",
      "ĠAC T",
      "b our",
      "Ġwe l",
      "Ġle a",
      "Ġpro p",
      "A side",
      "Ġso ft",
      "Ġsha d",
      "Ġchan ge",
      "ĠTH E",
      "Ġunt o",
      "Ġb urn",
      "Ġy ield",
      "Ġmight y",
      "ĠBe fore",
      "ĠH EN",
      "ĠL ook",
      "is f",
      "Ġe qu",
      "Ġse lf",
      "il s",
      "Ġchar ge",
      "ĠHEN RY",
      "id ed",
      "Ġsee k",
      "Ġcl oud",
      "Ġst o",
      "m s",
      "Ġdes ire",
      "Ġevery thing",
      "n ight",
      "Ġb it",
      "Ġg ro",
      "ĠUp on",
      "i ct",
      "Ġs ick",
      "Ġp ity",
      "Ġbo at",
      "Ġd are",
      "Ġl ab",
      "Ġp ie",
      "ĠA m",
      "ĠC LO",
      "il ity",
      "Ġw ine",
      "Ġc ol",
      "ĠB O",
      "und red",
      "L I",
      "Ġin cl",
      "Ġan g",
      "il es",
      "Ġra ge",
      "Ġheav y",
      "N o",
      "ĠL ady",
      "li es",
      "Ġtr ans",
      "o es",
      "Ġl ine",
      "Ġpr ot",
      "Ġstra ight",
      "Ġl arge",
      "at er",
      "ĠM ay",
      "ĠTh ough",
      "fe nd",
      "Ġknow s",
      "Ġper haps",
      "ĠLu c",
      "Ġf ill",
      "ĠL ond",
      "ĠD id",
      "Ġinst ant",
      "Ġque en",
      "ĠLond on",
      "U M",
      "id ent",
      "ĠC an",
      "Ġen g",
      "ĠRO S",
      "_ ,",
      "H e",
      "ce ll",
      "Ġdo st",
      "Ġfa ult",
      "Ġgra ve",
      "ĠEng lish",
      "Ġelect ronic",
      "Ġc ast",
      "Ġd in",
      "ĠG ive",
      "ĠJ im",
      "Ġs ense",
      "en ess",
      "Ġli ps",
      "Ġro yal",
      "AS S",
      "ĠB R",
      "Ġh ours",
      "Ġim m",
      "Ġb ur",
      "ar ch",
      "em pt",
      "Ġwar n",
      "A nd",
      "Ġb ene",
      "ic es",
      "Ġstreng th",
      "A B",
      "L ET",
      "c ul",
      "i or",
      "ur ing",
      "Ġcon c",
      "Ġqu iet",
      "ri es",
      "Ġse ver",
      "Ġli ving",
      "ĠL orry",
      "Ġsha r",
      "Ġpur s",
      "ou red",
      "ĠW ha",
      "Ġs us",
      "ĠH AM",
      "ĠE x",
      "itt ed",
      "Ġhon est",
      "Ġ X",
      "Ġf ix",
      "or ge",
      "Ġh undred",
      "ĠW ould",
      "Ġsu mm",
      "f ord",
      "i ers",
      "Ġmad am",
      "ĠHAM LET",
      "I I",
      "ĠT r",
      "Ġl im",
      "Ġsp o",
      "Ġlord s",
      "Ġstr uck",
      "enn et",
      "b o",
      "Ġ ed",
      "ĠL y",
      "Ġfort une",
      "s ed",
      "Ġb right",
      "Ġlong er",
      "W ell",
      "ĠT ell",
      "ĠP ar",
      "ere st",
      "d om",
      "i ves",
      "o ver",
      "ĠE D",
      "Ġw in",
      "ĠM aster",
      "am es",
      "Ġpro ve",
      "itt ing",
      "ne y",
      "Ġ ide",
      "ir m",
      "ĠE d",
      "T h",
      "ou ra",
      "Ġl eng",
      "ur al",
      "Ġli ves",
      "u nder",
      "Ġf ier",
      "Ġc ity",
      "Ġqu ar",
      "Ġlook s",
      "Ġwind ow",
      "res h",
      "Ġsat isf",
      "l er",
      "Ġw is",
      "ĠJ ane",
      "Ġgu ard",
      "Ġfam ily",
      "Ġ est",
      "Ġsc ar",
      "ĠV an",
      "Ġm od",
      "ĠT ill",
      "ĠG e",
      "Ġgo es",
      "B ER",
      "r or",
      "Ġde m",
      "Ġpr ince",
      "Ġres ol",
      "Ġwel come",
      "A ST",
      "Ġt able",
      "Ġw ret",
      "if ul",
      "Ġs ons",
      "Ġp ain",
      "pe nd",
      "Ġri ch",
      "al ace",
      "Ġag re",
      "Ġdire ct",
      "O M",
      "m orrow",
      "u ally",
      "Ġc ap",
      "ĠB ennet",
      "Ġde f",
      "Ġsl ow",
      "d le",
      "Ġf at",
      "c her",
      "g in",
      "Ġf ive",
      "Ġyour s",
      "Ġac qu",
      "Ġmist ress",
      "Ġexp ress",
      "! âĢĶ",
      "at han",
      "ĠS uch",
      "ĠY ork",
      "Ġbec ome",
      "t w",
      "Ġre ven",
      "ĠThe ir",
      "ĠWh ose",
      "Ġob ject",
      "uri ous",
      "Ġ ve",
      "Ġw on",
      "ĠC ount",
      "Ġhat e",
      "ĠThere fore",
      "Ġfav our",
      "Ġf ra",
      "Ġd i",
      "Ġpro per",
      "el s",
      "air s",
      "Ġdel ight",
      "as ure",
      "Ġro ll",
      "Ġa in",
      "er ve",
      "ĠF rench",
      "Ġsa ve",
      "fe ction",
      "Ġsomet imes",
      "i ant",
      "Ġf ate",
      "Ġne ither",
      "Ġmar ry",
      "C H",
      "Ġf ine",
      "Ġu nd",
      "ĠC l",
      "Ġde v",
      "Ġsha lt",
      "ĠWh ile",
      "o ly",
      "Ġlo se",
      "Ġro se",
      "cl us",
      "ĠSe e",
      "Ġpartic ular",
      "Ġleng th",
      "om er",
      "Ġr an",
      "Ġor der",
      "b b",
      "o ved",
      "Ġ ut",
      "Ġfor ward",
      "ĠD ef",
      "UC H",
      "Ġchan ce",
      "Ġgir l",
      "B ut",
      "ou n",
      "ĠH en",
      "Ġr u",
      "Ġrep lied",
      "Ġsl ain",
      "Ġsec ret",
      "Ġunt il",
      "ri ble",
      "as ion",
      "ĠF ound",
      "pp ing",
      "ĠY es",
      "ove red",
      "ac hed",
      "har d",
      "Ġunc le",
      "d d",
      "Ġm ot",
      "Ġh ot",
      "Ġye ar",
      "Ġposs ess",
      "M y",
      "ĠC om",
      "ER O",
      "Ġtr ouble",
      "ES TER",
      "ĠHen ry",
      "b ut",
      "Ġc ross",
      "ĠW as",
      "ach us",
      "Ġrem ain",
      "Ġchild ren",
      "aj esty",
      "Ġcomp any",
      "Ġacc ount",
      "in ing",
      "Ġs ix",
      "Ġm ain",
      "Ġp ost",
      "Ġserv ice",
      "Ġm ortal",
      "g or",
      "w here",
      "ĠT O",
      "Ġre ally",
      "ĠL ike",
      "Ġsa ke",
      "er ved",
      "Ġre ceived",
      "Ġar ri",
      "r ation",
      "ĠI V",
      "Ġe ars",
      "ĠG l",
      "AT R",
      "n ed",
      "Ġw ise",
      "Ġd a",
      "EL LO",
      "ub lic",
      "Ġd am",
      "om an",
      "Ġwe ak",
      "ĠHe ls",
      "Ġex pl",
      "we l",
      "Ġvill ain",
      "ĠWha le",
      "ĠHels ing",
      "Ġc row",
      "ĠH ad",
      "Ġst ud",
      "ET H",
      "n ow",
      "Ġ 2",
      "re st",
      "Ġm ove",
      "ing ley",
      "ent ed",
      "Ġst ep",
      "al t",
      "ĠM ore",
      "ink s",
      "Ġsever al",
      "Ġd ust",
      "Ġp h",
      "ĠL ORD",
      "ag er",
      "Ġtra in",
      "g es",
      "Ġs y",
      "Ġf oul",
      "Ġth ick",
      "Ġre ck",
      "ĠB ingley",
      "Ġswe ar",
      "E Y",
      "G AR",
      "Ġp ardon",
      "et y",
      "ra ct",
      "Ġint erest",
      "ĠGe orge",
      "ĠFound ation",
      "e qu",
      "ve ll",
      "ĠA L",
      "Ġgentlem en",
      "Ġj e",
      "ci an",
      "Ġtw enty",
      "Ġcle ar",
      "e ad",
      "r ay",
      "se t",
      "ĠE m",
      "Ġcon st",
      "en ge",
      "ĠCLO WN",
      "Ġre al",
      "Ġmar ried",
      "Ġwant ed",
      "Ġdo g",
      "Ġen c",
      "Ġsur pr",
      "Ġri ver",
      "te red",
      "Ġdist rib",
      "Ġmus ic",
      "a ff",
      "it ude",
      "Ġc orn",
      "Ġg all",
      "y ou",
      "Ġt ried",
      "un k",
      "ĠPRIN CE",
      "Y es",
      "i ar",
      "Ġc e",
      "ar b",
      "Ġro ad",
      "iss ion",
      "Ġs qu",
      "Ġp ale",
      "Ġe le",
      "ĠH ath",
      "Ġlo ved",
      "Ġhar m",
      "ru pt",
      "Ġbat tle",
      "Ġf et",
      "Ġbe at",
      "Ġr ing",
      "ĠDef arge",
      ") ,",
      "Ġh op",
      "ain st",
      "ect ion",
      "led ge",
      "ĠQ u",
      "f ic",
      "Ġb le",
      "Ġth row",
      "ĠS H",
      "ĠO h",
      "Ġship s",
      "Ġmo on",
      "O P",
      "h ood",
      "as ed",
      "ĠH a",
      "ep t",
      "Ġcould n",
      "Ġm aking",
      "Ġf it",
      "Ġto p",
      "id ing",
      "Ġme re",
      "ck ed",
      "Ġgold en",
      "Ġw oe",
      "Ġl ed",
      "an cy",
      "ĠM AC",
      "ĠG R",
      "Ġwr ite",
      "Ġmin ute",
      "f fect",
      "s es",
      "âĢĶ âĢĿ",
      "Ġlau gh",
      "d u",
      "âĢ ľ",
      "Ġst op",
      "Ġtr u",
      "are nt",
      "Ġbel ow",
      "Ġsil ence",
      "Ġs ens",
      "Ġd uty",
      "Ġp ol",
      "Ġwor se",
      "pl oy",
      "Ġcirc um",
      "Ġw ide",
      "Ġm ed",
      "Ġwe ar",
      "Ġsu per",
      "ĠO TH",
      "Ġblood y",
      "if ic",
      "Ġheart s",
      "Ġhead s",
      "ces ter",
      "Ġrep ort",
      "Ġhum an",
      "ĠGre gor",
      "Ġdread ful",
      "ĠDo ctor",
      "Ġvis it",
      "Ġtend er",
      "E US",
      "Ġd ied",
      "ĠS ay",
      "Ġstand s",
      "ĠPr ince",
      "l o",
      "p in",
      "r s",
      "ĠH ark",
      "Ġne cess",
      "ĠGree ce",
      "UT US",
      "Ġf ing",
      "Ġl oud",
      "ĠW ar",
      "ER V",
      "Ġspe ed",
      "Ġsupp ose",
      "Ġbea ut",
      "Ġdin ner",
      "ĠBR UTUS",
      "Ġide a",
      "Ġs in",
      "ĠS p",
      "med i",
      "r ous",
      "Ġo ath",
      "Ġsu cc",
      "Ġsa fe",
      "the n",
      "n own",
      "Ġt ro",
      "Ġa ble",
      "Ġf ig",
      "ĠA fter",
      "ĠG race",
      "Ġent er",
      "Ġcar ry",
      "v ol",
      "ĠS IR",
      "ter s",
      "ic hard",
      "Ġne igh",
      "Ġoff ic",
      "aint ed",
      "ĠMad am",
      "Ġhe ll",
      "ĠT ake",
      "Ġem ploy",
      "AG O",
      "Ġb ig",
      "Ġwh is",
      "IM ON",
      "Ġd rew",
      "ir th",
      "Ġfor get",
      "ĠF are",
      "Ġle g",
      "Ġim ag",
      "Ġra ce",
      "iz ed",
      "ĠC la",
      "Ġv ar",
      "Ġcon qu",
      "os om",
      "Ġper fect",
      "Ġmon th",
      "D Y",
      "âĢ ĺ",
      "ut es",
      "Ġre pe",
      "ĠC on",
      "ĠR ichard",
      "Ġreturn ed",
      "Ġhard ly",
      "ĠROS AL",
      "ĠOTH ELLO",
      "o int",
      "Ġl am",
      "le ep",
      "Ġpr in",
      "e ks",
      "Ġh ide",
      "os ition",
      "ĠS ERV",
      "ors es",
      "ĠAnt ony",
      "i ence",
      "t s",
      "Ġa uth",
      "in ation",
      "Ġb osom",
      "ĠI AGO",
      "ĠM e",
      "Ġwould n",
      "Ġex cell",
      "lem achus",
      "Ġserv ant",
      "Ġbeh old",
      "Ġposs ible",
      "o pe",
      "w ise",
      "at ive",
      "Ġe ffect",
      "our n",
      "Ġsw ift",
      "ĠTroj an",
      "Ġg ar",
      "ĠHe l",
      "ĠJ on",
      "Ġdis g",
      "iz e",
      "Ġconf ess",
      "Ġocc asion",
      "g ar",
      "Ġw ilt",
      "is es",
      "Ġy es",
      "il st",
      "pe ak",
      "end ed",
      "ĠCa ptain",
      "o b",
      "Ġa v",
      "Ġse at",
      "Ġfr ont",
      "Ġvirt ue",
      "IST RESS",
      "ĠM ISTRESS",
      "Ġdo ing",
      "Ġfa ct",
      "Ġfo e",
      "Ġcomp le",
      "A D",
      "i ans",
      "Ġun s",
      "ect ed",
      "Ġche er",
      "Ġopen ed",
      "Ġd art",
      "Ġst ory",
      "th ough",
      "Ġpr ide",
      "ick ed",
      "Ġfollow ed",
      "ats by",
      "Ġwall s",
      "Ġprison er",
      "ĠLE ON",
      "Ġlad ies",
      "W hy",
      "k ing",
      "ar ry",
      "ĠC ASS",
      "ĠF R",
      "Ġbl ow",
      "Ġeven ing",
      "Ġspir its",
      "Ġjud ge",
      "om ed",
      "Ġu r",
      "un es",
      "Ġeas y",
      "a ven",
      "u ct",
      "ve y",
      "Ġsp ort",
      "Ġwar m",
      "Ġmo ved",
      "Ġwa it",
      "Ġpra ise",
      "Ġforg ot",
      "it he",
      "en ing",
      "Ġpri v",
      "Ġvi ol",
      "b it",
      "j oy",
      "Ġt aking",
      "ou cester",
      "Ġp ublic",
      "Ġex cept",
      "Ġc ow",
      "ro om",
      "ĠG ENT",
      "Ġpro ceed",
      "ĠSt ubb",
      "Ġworth y",
      "Ġsuit ors",
      "Ġsudden ly",
      "ĠPar is",
      "ĠGENT LE",
      "c he",
      "p ed",
      "Ġb and",
      "Ġh orses",
      "Ġp ort",
      "ra ge",
      "ĠG atsby",
      "Ġim medi",
      "ĠANTON Y",
      "b r",
      "Ġ ign",
      "ĠI nd",
      "ci ent",
      "Ġbec ame",
      "ĠGl oucester",
      "t ed",
      "Ġ er",
      "Ġt y",
      "Ġh ill",
      "Ġnot e",
      "Ġis land",
      "ĠG LO",
      "ard in",
      "Ġthy self",
      "Ġstr anger",
      "Ġgl ory",
      "UC ESTER",
      "Ġsk y",
      "ĠGLO UCESTER",
      "i ent",
      "on ed",
      "Ġth under",
      "Ġme m",
      "if ied",
      "Ġspe ech",
      "ec il",
      "Ġpa per",
      "Ġenem y",
      "Ġ ought",
      "om p",
      "ĠC ass",
      "ĠC oll",
      "Ġbl ind",
      "Ġcha rac",
      "Ġmar riage",
      "Ġbro ke",
      "Ġbro ken",
      "Ġdiffe rent",
      "w ick",
      "Ġf resh",
      "it or",
      "ĠM ost",
      "il ing",
      "Ġlo ves",
      "um ent",
      "OR T",
      "Ġimp ort",
      "w hat",
      "Ġm ess",
      "Ġf ish",
      "Ġp aid",
      "Ġtr ad",
      "ĠTe lemachus",
      "equ eg",
      "o ot",
      "ag ed",
      "ĠWe re",
      "e ech",
      "o c",
      "Ġo pin",
      "Ġc rew",
      "Ġaf fection",
      "Ġpart s",
      "ET R",
      "lem n",
      "Ġquick ly",
      "ĠA d",
      "al ity",
      "ĠP l",
      "ust ration",
      "Ġsp read",
      "Ġgi ves",
      "ĠGree ks",
      "er able",
      "ĠM an",
      "ious ly",
      "e a",
      "it es",
      "ra ph",
      "ĠC OR",
      "Ġfeel ing",
      "ĠPr ay",
      "Ġscar ce",
      "Ġst orm",
      "Ġsa c",
      "oth ing",
      "Ġfollow ing",
      "Ġsil ver",
      "Ġadd ed",
      "Ġreg ard",
      "Ġreven ge",
      "Ġcircum st",
      "Ġf if",
      "Ġf un",
      "ra id",
      "Ġso lemn",
      "Ġho ly",
      "AT H",
      "Ġprom ise",
      "es h",
      "Ġp it",
      "ĠA j",
      "Ġv ol",
      "op s",
      "itt en",
      "Ġhar po",
      "Ġkill ed",
      "Ġgre en",
      "H ow",
      "h ow",
      "en ger",
      "ĠT y",
      "ĠAn other",
      "Ġletter s",
      "AG E",
      "D ER",
      "I Z",
      "d ess",
      "h ost",
      "k ed",
      "Ġ ver",
      "Ġb ri",
      "Ġf re",
      "ĠW AR",
      "ĠL a",
      "ĠL ong",
      "Ġdes cend",
      "ang u",
      "ĠWar wick",
      "Ġ id",
      "ha l",
      "id ence",
      "ĠO R",
      "Ġr ise",
      "Ġfe ast",
      "AN IO",
      "Ġcont ent",
      "Ġwha les",
      "ĠGENTLE MAN",
      "I ll",
      "v al",
      "z en",
      "nd s",
      "Ġn umber",
      "Ġme ant",
      "ĠC ecil",
      "Ġne ck",
      "Ġsc ene",
      "Ġent reat",
      "Ġdem and",
      ". ]",
      "L AND",
      "Ġp owers",
      "Ġth ri",
      "Ġcon ce",
      "ĠJ UL",
      "Ġch urch",
      "Ġtre mb",
      "a is",
      "Ġob ey",
      "Ġget ting",
      "Ġca ptain",
      "Ġcopy right",
      "Ġsto pped",
      "Ġb ird",
      "ĠA h",
      "em n",
      "Ġsee ing",
      "Ġdet erm",
      "Ġir on",
      "Ġagre ement",
      "Ġcrow d",
      "O T",
      "g o",
      "Ġf lies",
      "Ġst ir",
      "ĠC LE",
      "Ġfe e",
      "Ġgra cious",
      "Ġco ll",
      "Ġsil ent",
      "Ill ustration",
      "Ġs orry",
      "Ġe vil",
      "Ġde g",
      "Ġde ck",
      "Ġag ree",
      "Ġrem ark",
      "Ġhast e",
      "Ġshar p",
      "Ġsucc ess",
      "Ġsac red",
      "Y R",
      "g y",
      "Ġf ury",
      "or ious",
      "Ġsh ut",
      "ast e",
      "Ġknow ledge",
      "Ġcreat ure",
      "Ġang ry",
      "p ic",
      "y ond",
      "Ġs igh",
      "ra m",
      "Ġli ft",
      "Ġde al",
      "ard en",
      "Ġen joy",
      "ĠAr ch",
      "n ers",
      "Ġkn ight",
      "Ġoff er",
      "Ġra ised",
      "ĠQue equeg",
      "Ġmur der",
      "ĠâĢľ âĢĺ",
      "ore d",
      "pp y",
      "ci ence",
      "ĠAj ax",
      "a h",
      "y e",
      "Ġc at",
      "ĠA p",
      "Ġde ed",
      "Ġac cept",
      "Ġdep art",
      "Ġa id",
      "at ure",
      "Ġst ern",
      "Ġso vere",
      "ĠP AGE",
      "Ġcomp an",
      "Ġwar ri",
      "Ġser ve",
      "S P",
      "l ight",
      "Ġw id",
      "Ġp ict",
      "ĠA b",
      "ĠW est",
      "Ġse as",
      "ĠP AR",
      "Ġcon vers",
      "Ġun k",
      "Ġcl ot",
      "Ġfri ght",
      "Ġsl ight",
      "Ġstand ing",
      "Ġstre am",
      "ĠAl as",
      "Ġmer cy",
      "L Y",
      "T hat",
      "Ġh ung",
      "Ġle an",
      "Ġnat ural",
      "Ġgri e",
      "Ġval iant",
      "Ġdiv ine",
      "Ġbit ter",
      "Ġpie ce",
      "ĠEd ward",
      "Ġt ent",
      "and er",
      "Ġcom b",
      "Ġal ive",
      "IN D",
      "ĠAt t",
      "Ġjo in",
      "g ue",
      "h o",
      "Ġc alm",
      "Ġhapp ened",
      "Ġsuff er",
      ", âĢĻ",
      "E W",
      "c ent",
      "Ġg ift",
      "ro ke",
      "Ġso l",
      "Ġgl ass",
      "Ġpresent ly",
      "Ġstre et",
      "Ġear ly",
      "r at",
      "Ġbe ha",
      "her d",
      "Ġsh ook",
      "ak ed",
      "US E",
      "OR K",
      "Ġpass ion",
      "Ġhapp iness",
      "Ġbes eech",
      "Ġauth or",
      "Ġt akes",
      "Ġm ut",
      "ant age",
      "ĠHe aven",
      "Ġgreat er",
      "Ġtem p",
      "ĠLA DY",
      "ĠS ince",
      "ĠP at",
      "Ġoff ice",
      "IC E",
      "Ġac ross",
      "Ġform er",
      "Ġwit ness",
      "U FF",
      "in ct",
      "Ġb ase",
      "Ġf ame",
      "Ġn ig",
      "im ent",
      "Ġno b",
      "Ġag o",
      "are st",
      "Ġgod dess",
      "wel ve",
      "s on",
      "Ġt or",
      "Ġf aint",
      "Ġth ro",
      "ĠT w",
      "Ġsh ield",
      "Ġex am",
      "IN A",
      "Ġwar rant",
      "Ġcar ried",
      "Ġs ou",
      "re l",
      "se mb",
      "Ġe ff",
      "ĠS peak",
      "ous ly",
      "ue l",
      "Ġgr ant",
      "Ġdark ness",
      "ash ion",
      "Ġpra ct",
      "l ot",
      "m ber",
      "r ist",
      "Ġw oo",
      "it ions",
      "ut us",
      "ĠH EL",
      "ĠM EN",
      "Ġk ings",
      "Ġsm ile",
      "Ġjust ice",
      "Ġcertain ly",
      "Ġbene ath",
      "Ġopin ion",
      "Ġ 3",
      "in a",
      "Ġm atch",
      "Ġp en",
      "ce an",
      "ĠM ESS",
      "est ed",
      "um e",
      "Ġsp r",
      "Ġway s",
      "Ġsc orn",
      "The y",
      "Ġsing le",
      "Ġfier ce",
      "Ã ¦",
      "or th",
      "Ġp ull",
      "an ch",
      "ver n",
      "Ġun f",
      "Ġper m",
      "ĠS we",
      "Ġre ach",
      "Ġst one",
      "Ġaf raid",
      "Ġthink ing",
      "erv a",
      "Ġpres ence",
      "RO M",
      "Ġlab our",
      "Ġfet ch",
      "Ġbeaut iful",
      "Ġcharac ter",
      "Ġf ie",
      "ĠN ever",
      "Ġun w",
      "ĠBe e",
      "Ġcou rage",
      "Ġdest ro",
      "Ġexcell ent",
      "f ess",
      "Ġa ction",
      "Ġm iss",
      "Ġp at",
      "Ġp alace",
      "ĠT IMON",
      "Ġde li",
      "ĠF irst",
      "ĠD es",
      "Ġsa v",
      "ound s",
      "Ġfl esh",
      "ock s",
      "ĠMin a",
      "ithe e",
      "B ook",
      "i am",
      "en ch",
      "Ġhe alth",
      "Ġis s",
      "ĠM ist",
      "Ġsh out",
      "Ġor d",
      "Ġbl ue",
      "Ġlaw s",
      "Ġter rible",
      "ĠMin erva",
      "m ing",
      "Ġm al",
      "Ġd uke",
      "Ġin qu",
      "et er",
      "ĠB art",
      "em ber",
      "au nt",
      "Ġro ck",
      "Ġstri ke",
      "ĠS erv",
      "Ġas leep",
      "ĠO ut",
      "ĠBee be",
      "? âĢĶ",
      "B ETH",
      "in ous",
      "Ġw ond",
      "Ġto morrow",
      "Ġh unt",
      "Ġe arn",
      "Ġv oy",
      "Ġr us",
      "ĠY ORK",
      "ĠSt ates",
      "Ġpers u",
      "AC H",
      "Ġsn ow",
      "ĠMAC BETH",
      "T ES",
      "Ġb ore",
      "ĠH igh",
      "Ġv es",
      "Ġpro b",
      "Ġbo ard",
      "Ġappe ared",
      "Ġincl ud",
      "ĠHel en",
      "r is",
      "it ation",
      "ĠH omer",
      "IN IUS",
      "Ġaf fect",
      "ĠGre cian",
      "Ġpati ence",
      "ATR A",
      "OP ATRA",
      "ĠCLE OPATRA",
      "ĠBart let",
      "B Y",
      "G ER",
      "W e",
      "Ġg host",
      "im on",
      "ad ed",
      "Ġan x",
      "um ph",
      "Ġour selves",
      "ol k",
      "Ġra in",
      "Ġent ire",
      "Ġmin utes",
      "IAN A",
      "ĠBr utus",
      "ĠBartlet t",
      "c ing",
      "th ur",
      "fe rence",
      "Ġsp ring",
      "Ġun ha",
      "Ġcomp l",
      "Ġbra in",
      "ĠANT I",
      "oura ble",
      "Ġsovere ign",
      "U D",
      "Ġa st",
      "Ġm eth",
      "Ġb irth",
      "an ced",
      "Ġth rew",
      "ĠS YR",
      "if f",
      "ist ed",
      "ĠAN D",
      "AC USE",
      "ĠMAR GAR",
      "UN T",
      "ĠFare well",
      "ĠSYR ACUSE",
      "p he",
      "w s",
      "Ġbe yond",
      "Ġnot ice",
      "est s",
      "Ġlo ss",
      "ĠJ ust",
      "Ġcl o",
      "OL K",
      "IL IA",
      "Ġtru ly",
      "Ġdestro y",
      "b ed",
      "f ast",
      "Ġt welve",
      "Ġm ag",
      "Ġm ention",
      "ut ed",
      "ĠG reat",
      "Ġv an",
      "Ġv enge",
      "Ġex act",
      "Ġacc ord",
      "ĠUn ited",
      "Ġwret ched",
      "ĠROSAL IND",
      "Ġh id",
      "ĠM ake",
      "ĠC A",
      "ĠC IT",
      "Ġno ise",
      "EL IA",
      "Ġdist ance",
      "Ġvi ctor",
      "Ġd ouble",
      "Ġof fend",
      "Ġst ret",
      "ĠD r",
      "Ġspe ar",
      "ick ham",
      "ĠAr thur",
      "Ġfeel ings",
      "Ġappro ach",
      "-------- --------",
      "Ġfix ed",
      "ĠMARGAR ET",
      "Ġs ch",
      "on ight",
      "Ġd ish",
      "Ġof t",
      "al es",
      "ĠC ha",
      "Ġde b",
      "Ġbl ame",
      "Ġacc ess",
      "Ġtalk ing",
      "Ġdif fic",
      "arb uck",
      "Ġclot hes",
      "Ġc laim",
      "Ġin j",
      "Ġth ird",
      "ur se",
      "Ġli ved",
      "ci al",
      "Ġsupp er",
      "Ġsumm er",
      "ĠMist ress",
      "h old",
      "n y",
      "Ġt a",
      "Ġg a",
      "Ġre ve",
      "ĠP ri",
      "Ġan cient",
      "Ġne eds",
      "ĠR oom",
      "Ġun e",
      "ĠK ATH",
      "ather ine",
      "Ġwr itten",
      "Ġpla ced",
      "Ġbro ad",
      "Ġmer ry",
      "ĠMar ry",
      "form ation",
      "IZ EN",
      "ĠCIT IZEN",
      "T A",
      "c han",
      "Ġc re",
      "Ġe Book",
      "ic ally",
      "ie ur",
      "Ġper form",
      "Ġte eth",
      "ĠColl ins",
      "Ġsou ls",
      "O G",
      "Ġc atch",
      "Ġg arden",
      "ĠW ickham",
      "ro clus",
      "ĠF e",
      "Ġne g",
      "fe red",
      "Ġal ar",
      "EN GER",
      "are r",
      "Ġdis m",
      "Ġcha ir",
      "Ġcont r",
      "Ġatt ention",
      "Ġheaven s",
      "Ġwalk ed",
      "Ġcloud s",
      "ĠMESS ENGER",
      "d ing",
      "re m",
      "ĠD ON",
      "ĠR os",
      "Ġpleas ed",
      "ĠCh rist",
      "tern al",
      "Ġequ al",
      "Ġign or",
      "V IA",
      "r ate",
      "z y",
      "Ġc ost",
      "Ġl a",
      "if y",
      "Ġex ec",
      "Ġspeak ing",
      "Ġfield s",
      "Ġcoun sel",
      "Ġsold iers",
      "ĠSERV ANT",
      "p it",
      "Ġf ashion",
      "Ġbe nd",
      "am ed",
      "Ġli ber",
      "ĠJ O",
      "Ġatt empt",
      "Ġmon ster",
      "hy s",
      "p ing",
      "Ġs li",
      "re r",
      "Ġf ancy",
      "Ġc ab",
      "Ġhe ap",
      "ĠT it",
      "Ġg ates",
      "ay s",
      "Ġfa rew",
      "ER S",
      "ĠSt and",
      "ĠSt arbuck",
      "UC K",
      "ĠLE AR",
      "Ġlea ves",
      "Ġshad ow",
      "Ġneigh bour",
      "ĠAtt end",
      "ĠPat roclus",
      "Ġfarew ell",
      "m on",
      "Ġs itting",
      "Ġo ri",
      "Ġm ock",
      "Ġf irm",
      "ĠT R",
      "Ġg ate",
      "ast le",
      "ĠTh r",
      "Ġex per",
      "Ġpl an",
      "EL L",
      "Ġstart ed",
      "Ġsold ier",
      "ĠSh ould",
      "Ġcol our",
      "W ICK",
      "f er",
      "Ġc red",
      "Ġc amp",
      "Ġl angu",
      "ĠA way",
      "et te",
      "ĠP age",
      "nt o",
      "la ce",
      "AN US",
      "Ġent ered",
      "IR D",
      "Ġdra wn",
      "Ġsk ies",
      "Ġmid dle",
      "fess or",
      "j o",
      "Ġt onight",
      "Ġm ass",
      "Ġc ent",
      "ed ing",
      "Ġl ust",
      "ĠA then",
      "Ġre ceive",
      "ĠC r",
      "Ġr ising",
      "ĠTH IRD",
      "lot te",
      "t on",
      "Ġw ed",
      "Ġm ast",
      "Ġl ion",
      "our ish",
      "ĠP AND",
      "ĠD on",
      "qu e",
      "Ġcan st",
      "Ġun less",
      "Ġpro s",
      "Ġafter wards",
      "Ġturn ing",
      "Ġbe ast",
      "se qu",
      "ĠB es",
      "ain ing",
      "ĠF ORD",
      "Ġdo gs",
      "ĠV en",
      "Ġcall s",
      "Ġtre es",
      "Ġsla ught",
      "ĠWAR WICK",
      "ais y",
      "I f",
      "W ARD",
      "b id",
      "Ġb ott",
      "Ġf ro",
      "Ġd uring",
      "Ġwe ight",
      "ĠC O",
      "ell ow",
      "ers on",
      "Ġch oose",
      "Ġbeg un",
      "Ġsla ve",
      "Ġmot ion",
      "Ġt ail",
      "Ġc al",
      "Ġc aught",
      "Ġin no",
      "Ġth reat",
      "ĠP ER",
      "Ġr id",
      "Ġar g",
      "Ġfl ight",
      "Ġpart y",
      "Ġkne es",
      "Ġca pt",
      "Ġpri ze",
      "anc ing",
      "Ġdesp air",
      "ĠJon athan",
      "Ġconvers ation",
      "Ġt all",
      "Ġf ood",
      "Ġf urn",
      "Ġl ance",
      "Ġwh ilst",
      "est or",
      "ĠPro fessor",
      "Ġturn s",
      "Ġpass age",
      "cl ock",
      "Ġpar ag",
      "H N",
      "H IL",
      "Ġb ent",
      "Ġb ones",
      "en ces",
      "ie ve",
      "Ġcha ri",
      "OL US",
      "Ġbo x",
      "iter ary",
      "Ġimm ortal",
      "T w",
      "c il",
      "ĠS T",
      "Ġj our",
      "Ġthan ks",
      "ons ieur",
      "PH OLUS",
      "ca pe",
      "ĠANTI PHOLUS",
      "D EM",
      "Ġt ale",
      "er c",
      "Ġd ue",
      "Ġp ress",
      "Ġn ar",
      "ri c",
      "ĠM ess",
      "Ġfl ed",
      "Ġra p",
      "Ġke y",
      "Ġgra nd",
      "Ġste el",
      "i est",
      "s p",
      "Ġd im",
      "ĠM ust",
      "ĠF ort",
      "Ġfl ood",
      "Ġrem ained",
      "Ġent ertain",
      "Ġem pt",
      "Ġcr uel",
      "Ġwa ves",
      "Ġfig ure",
      "d ia",
      "Ġs ong",
      "Ġc iv",
      "Ġe ight",
      "ĠâĢľ _",
      "ĠE M",
      "qu od",
      "Ġfa ces",
      "Ġpla ces",
      "The re",
      "Ġmur de",
      "S E",
      "S t",
      "S he",
      "l ong",
      "s ing",
      "t led",
      "u gg",
      "Ġt it",
      "Ġo w",
      "Ġp un",
      "am ing",
      "ive ly",
      "Ġfa il",
      "Ġim per",
      "ĠV AL",
      "Ġdes ert",
      "Ġob t",
      "Ġrun ning",
      "Ġbes ide",
      "ĠPe quod",
      "cri pt",
      "Ġmount ain",
      "ĠLy dia",
      "Ġcomple te",
      "Ġvoy age",
      "u ge",
      "Ġ 4",
      "Ġw ars",
      "Ġb od",
      "Ġb ond",
      "Ġst ar",
      "ĠP y",
      "ĠD aisy",
      "ĠE very",
      "Ġv ast",
      "Ġfe ars",
      "._ --",
      "ci ally",
      "row s",
      "Ġwat ers",
      "Ġstre ets",
      "Ġnear ly",
      "ĠChar lotte",
      "Ġstep s",
      "ĠJO HN",
      "e ed",
      "in ary",
      "Ġo dd",
      "Ġm ajesty",
      "Ġb ab",
      "Ġc urious",
      "se y",
      "ĠL ove",
      "Ġsha ke",
      "Ġsha pe",
      "Ġkn ave",
      "Ġwhat ever",
      "Ġtr oub",
      "Ġsw ell",
      "Ġimp oss",
      "ix t",
      "Ġpati ent",
      "Ġhop es",
      "Ġimmedi ately",
      "Ġjour ney",
      "ĠEM ILIA",
      "Ġf ut",
      "Ġp ap",
      "Ġe ager",
      "Ġshe ep",
      "Ġout side",
      "Ġwor st",
      "Ġtr ump",
      "Ġfool ish",
      ".. ..",
      "Ġreck on",
      "Ġcow ard",
      "ĠHEL EN",
      "0 0",
      "c ause",
      "Ġw icked",
      "Ġd er",
      "Ġbe ars",
      "ĠS il",
      "ĠM ars",
      "ĠD ES",
      "Ġno se",
      "Ġlo ving",
      "Ġint ell",
      "AR US",
      "ON A",
      "Ġbre ad",
      "Ġtry ing",
      "Ġhur t",
      "ĠAg ainst",
      "Ġsatisf ied",
      "Ġeff ort",
      ", --",
      "Ġt ou",
      "it iz",
      "Ġd ry",
      "Ġd ress",
      "Ġp hys",
      "ĠT IT",
      "Ġwe ap",
      "ĠC y",
      "Ġde eds",
      "Ġman ners",
      "Ġam b",
      "Ġpo et",
      "ĠChar les",
      "ĠANTON IO",
      "Ġbegin ning",
      "Ġearn est",
      "w ith",
      "Ġo cean",
      "or g",
      "Ġl ower",
      "Ġp ure",
      "om in",
      "Ġr ough",
      "Ġle gs",
      "Ġap art",
      "Ġcar riage",
      "Ġlearn ed",
      "Ġslow ly",
      "ĠTw o",
      "Ġori gin",
      "Ġparag raph",
      "I n",
      "a ld",
      "Ġw ake",
      "ch ief",
      "Ġas ide",
      "oo ls",
      "em ark",
      "Ġus ual",
      "Ġtra itor",
      "Ġpleas ant",
      "Ġcontin ued",
      "Ġbur st",
      "ĠArch ive",
      "E O",
      "T OR",
      "b ury",
      "i pp",
      "Ġd ance",
      "Ġh ig",
      "Ġhe at",
      "Ġwe alth",
      "ter ing",
      "ĠL iterary",
      "ĠTh ose",
      "ag ue",
      "Ġpl uck",
      "ru ction",
      "ĠĠĠĠĠĠĠĠĠĠĠĠĠĠĠĠ ĠĠĠ",
      "Ġbless ed",
      "cha nt",
      "D o",
      "Ġc ries",
      "Ġto day",
      "ar l",
      "ch urch",
      "Ġfor s",
      "Ġre b",
      "ad es",
      "ra h",
      "ĠC LA",
      "ĠD is",
      "Ġcomp ass",
      "Ġbo ats",
      "Ġdr own",
      "Ġnat ive",
      "no on",
      "ĠED WARD",
      "ĠCLA UD",
      "r ound",
      "Ġha ll",
      "Ġe ld",
      "ĠB uck",
      "ĠG u",
      "ĠĠĠĠ Ġ",
      "ic ed",
      "ĠN estor",
      "Ġshould er",
      "Ġend e",
      "Ġheaven ly",
      "Ġbel ong",
      "Ġadd ress",
      "iet y",
      "Ġmonth s",
      "ĠSwe et",
      "Ġfut ure",
      "M EO",
      "he ld",
      "Ġc ust",
      "as es",
      "ĠS aint",
      "ĠH oney",
      "ish ment",
      "Ġfl oor",
      "ĠSt ill",
      "te en",
      "Ġcons cience",
      "ĠRO MEO",
      "Ġden y",
      "DEM ONA",
      "ĠDES DEMONA",
      "z z",
      "Ġm il",
      "Ġp ier",
      "Ġp arent",
      "Ġme l",
      "ĠC AP",
      "Ġsh ot",
      "ĠD i",
      "EN IUS",
      "Ġpro c",
      "Ġcha mber",
      "Ġhear ing",
      "Ġte ar",
      "ib ly",
      "ĠMEN ENIUS",
      "O W",
      "or ous",
      "Ġd ull",
      "Ġto w",
      "Ġl est",
      "Ġl ines",
      "Ġhe ir",
      "Ġre ached",
      "ĠB E",
      "ĠC atherine",
      "ĠD ROM",
      "Ġsa f",
      "Ġv ile",
      "ist s",
      "Ġcount en",
      "Ġshow ed",
      "ĠDROM IO",
      "a pp",
      "he red",
      "Ġsh r",
      "Ġsh ows",
      "Ġv o",
      "un ning",
      "Ġsp ent",
      "Ġpro du",
      "Ġdid st",
      "Ġgreat est",
      "Ġfl owers",
      "Ġmar ch",
      "Ġste eds",
      "Ġfall s",
      "Ġboy s",
      "Ġbu y",
      "Ġut ter",
      "ĠFR I",
      "ĠMan ette",
      "Ġ Ã",
      "he l",
      "Ġb are",
      "Ġto ward",
      "Ġto mb",
      "ĠS omet",
      "ĠB el",
      "ĠC art",
      "Ġsa cri",
      "Ġspeak s",
      "ĠPro ss",
      "Ġmis erable",
      "Ġlea ving",
      "Ġspo ken",
      "Ġmem ory",
      "ĠCLAUD IO",
      "a e",
      "k y",
      "Ġm ourn",
      "Ġl ack",
      "Ġl ying",
      "Ġg ain",
      "Ġg rew",
      "Ġwe ek",
      "ĠB l",
      "us ion",
      "Ġwind s",
      "Ġdr unk",
      "Ġbreak fast",
      "Ġdri ve",
      "Ġwound s",
      "ID A",
      "Ġbook s",
      "Ġfle w",
      "Ġnig ger",
      "Ġbott om",
      "Ġimposs ible",
      "Ġ 5",
      "is her",
      "Ġl ot",
      "ĠB ERO",
      "end s",
      "Ġfl at",
      "Ġadv antage",
      "Ġinc re",
      "Ġcoun ter",
      "WN E",
      "Ġdanger ous",
      "AB EL",
      "ĠBERO WNE",
      "i um",
      "i od",
      "l ook",
      "p ar",
      "p ter",
      "r id",
      "Ġt aste",
      "Ġn ine",
      "ow ing",
      "ĠP ETR",
      "Ġdo ors",
      "pe cially",
      "Ġkn ock",
      "ci ans",
      "Ġco ff",
      "Ġtra vell",
      "for med",
      "Ġhel m",
      "Ġsub st",
      "ĠWill iam",
      "ĠPe ace",
      "Ġgro an",
      "UCH IO",
      "ĠPETR UCHIO",
      "c al",
      "Ġd well",
      "Ġh orn",
      "ĠF al",
      "ĠO LI",
      "Ġdo om",
      "Ġv ent",
      "ĠN othing",
      "ort un",
      "Ġpe cul",
      "Ġgl orious",
      "Ġafter noon",
      "ail s",
      "Ġcond uct",
      "Ġcorn er",
      "ĠHark er",
      "Ġrepe ated",
      "Ġtremb ling",
      "ĠHoney church",
      "Ġpecul iar",
      "s he",
      "Ġs ire",
      "Ġme asure",
      "Ġst at",
      "al ed",
      "Ġse ven",
      "Ġse arch",
      "ĠL av",
      "Ġdis pl",
      "Ġcl er",
      "Ġte ach",
      "Ġprof ess",
      "Ġvenge ance",
      "ĠPri am",
      "I ER",
      "l ig",
      "p herd",
      "u ish",
      "an io",
      "ĠH arry",
      "ĠP ED",
      "Ġfl o",
      "Ġche eks",
      "Ġdon ations",
      "Ġhero es",
      "Ġvar ious",
      "Ġtrad emark",
      "H AM",
      "c an",
      "Ġt reat",
      "Ġb la",
      "le g",
      "al ous",
      "ĠB et",
      "ĠC RESS",
      "Ġsu gg",
      "ĠJ ul",
      "Ġbr ow",
      "Ġlove ly",
      "OL IO",
      "Ġhon ours",
      "Ġfear ful",
      "ĠLu ci",
      "Ġsupp ort",
      "Ġappe ars",
      "Ġserv ants",
      "ENT INE",
      "ĠRome o",
      "ĠVAL ENTINE",
      "ĠCRESS IDA",
      "ha nt",
      "Ġb ul",
      "er ry",
      "Ġp et",
      "ĠS w",
      "ĠC all",
      "Ġpro of",
      "Ġfo es",
      "Ġsw orn",
      "Ġkind ness",
      "Ġgi ving",
      "Ġdro p",
      "Ġaw ful",
      "Ġcle an",
      "Ġexc laim",
      "Ġstud y",
      "Ġende av",
      "ĠCart on",
      "ABEL LA",
      "c le",
      "i pe",
      "Ġf ru",
      "Ġn ice",
      "ĠH OST",
      "Ġme at",
      "ĠC ont",
      "ur s",
      "os ing",
      "Ġtw ice",
      "Ġcl osed",
      "Ġdes ign",
      "ĠBe ing",
      "Ġwr ath",
      "ING HAM",
      "Ġpray ers",
      "Ġinf l",
      "ĠGree k",
      "Ġexpect ed",
      "Th is",
      "Ġwis dom",
      "ĠTO BY",
      "Ġthro at",
      "ĠPAND ARUS",
      "I G",
      "V OLIO",
      "f ield",
      "h or",
      "Ġm ix",
      "ver se",
      "ĠM en",
      "Ġsh ock",
      "Ġcon v",
      "ie ce",
      "Ġsp ite",
      "IO L",
      "Ġarm y",
      "Ġhon ourable",
      "lem en",
      "the re",
      "Ġste al",
      "Ġsk ill",
      "Ġopp ortun",
      "Ġl oose",
      "Ġhe ight",
      "ĠT imon",
      "Ġhis t",
      "Ġwe ather",
      "ĠC ON",
      "ĠP OL",
      "Ġan im",
      "Ġde pend",
      "ĠG ent",
      "per m",
      "Ġsm ell",
      "Ġbo ast",
      "Ġmis ery",
      "Ġborn e",
      "Ġadm ir",
      "ĠPh il",
      "Ġnecess ary",
      "ĠCOR IOL",
      "Ġwarri or",
      "ĠCORIOL ANUS",
      "a ly",
      "Ġs ought",
      "Ġb ank",
      "Ġf ond",
      "se ls",
      "ĠS at",
      "ĠN OR",
      "Ġal though",
      "Ġsp are",
      "Ġun b",
      "Ġdes c",
      "Ġmean ing",
      "Ġfle et",
      "Ġdeg ree",
      "Ġunha ppy",
      "T EUS",
      "l in",
      "á ½",
      "Ġt ree",
      "Ġb uck",
      "ĠS y",
      "ent er",
      "ĠM ajesty",
      "ĠC or",
      "Ġan ger",
      "Ġsu c",
      "ĠD arn",
      "âĢĶ âĢľ",
      "Ġcons ent",
      "Ġking dom",
      "Ġgu ess",
      "Ġdr um",
      "Ġass ist",
      "ĠNor th",
      "Ġwit hal",
      "Ġeas ily",
      "ĠPRO TEUS",
      "Ġconst ant",
      "Ġpict ure",
      "Ġempt y",
      "E B",
      "e w",
      "Ã ©",
      "Ġs ides",
      "Ġb all"
    ]
  }
}